{"version":"1.0","truncation":null,"padding":null,"added_tokens":[{"id":0,"special":true,"content":"<pad>","single_word":false,"lstrip":false,"rstrip":false,"normalized":false},{"id":1,"special":true,"content":"</sos>","single_word":false,"lstrip":false,"rstrip":false,"normalized":false},{"id":2,"special":true,"content":"<sos>","single_word":false,"lstrip":false,"rstrip":false,"normalized":false},{"id":3,"special":true,"content":"<unk>","single_word":false,"lstrip":false,"rstrip":false,"normalized":false},{"id":4,"special":true,"content":"<mask>","single_word":false,"lstrip":false,"rstrip":false,"normalized":false}],"normalizer":{"type":"NFKC"},"pre_tokenizer":{"type":"Whitespace"},"post_processor":{"type":"BertProcessing","sep":["</sos>",1],"cls":["<sos>",2]},"decoder":null,"model":{"type":"WordPiece","unk_token":"<unk>","continuing_subword_prefix":"##","max_input_chars_per_word":100,"vocab":{"<pad>":0,"</sos>":1,"<sos>":2,"<unk>":3,"<mask>":4,"$":5,"%":6,"0":7,"1":8,"2":9,"3":10,"4":11,"5":12,"6":13,"7":14,"8":15,"9":16,"a":17,"b":18,"c":19,"d":20,"e":21,"f":22,"g":23,"h":24,"i":25,"j":26,"k":27,"l":28,"m":29,"n":30,"o":31,"p":32,"q":33,"r":34,"s":35,"t":36,"u":37,"v":38,"w":39,"x":40,"y":41,"z":42,"ა":43,"ბ":44,"გ":45,"დ":46,"ე":47,"ვ":48,"ზ":49,"თ":50,"ი":51,"კ":52,"ლ":53,"მ":54,"ნ":55,"ო":56,"პ":57,"ჟ":58,"რ":59,"ს":60,"ტ":61,"უ":62,"ფ":63,"ქ":64,"ღ":65,"ყ":66,"შ":67,"ჩ":68,"ც":69,"ძ":70,"წ":71,"ჭ":72,"ხ":73,"ჯ":74,"ჰ":75,"##ც":76,"##ი":77,"##კ":78,"##თ":79,"##ხ":80,"##ე":81,"##ა":82,"##ტ":83,"##ბ":84,"##ს":85,"##s":86,"##e":87,"##r":88,"##n":89,"##a":90,"##m":91,"##i":92,"##c":93,"##უ":94,"##ლ":95,"##პ":96,"##ვ":97,"##რ":98,"##ჩ":99,"##მ":100,"##ო":101,"##ზ":102,"##ნ":103,"##ძ":104,"##შ":105,"##ფ":106,"##გ":107,"##დ":108,"##0":109,"##3":110,"##5":111,"##6":112,"##ყ":113,"##b":114,"##d":115,"##h":116,"##o":117,"##ქ":118,"##წ":119,"##q":120,"##u":121,"##p":122,"##g":123,"##v":124,"##t":125,"##z":126,"##l":127,"##ღ":128,"##9":129,"##k":130,"##ჯ":131,"##j":132,"##y":133,"##ჟ":134,"##ჭ":135,"##x":136,"##7":137,"##w":138,"##2":139,"##1":140,"##4":141,"##8":142,"##ჰ":143,"##f":144,"##%":145,"##$":146,"##ებ":147,"##ის":148,"##არ":149,"##ან":150,"##ლი":151,"და":152,"##ამ":153,"##ად":154,"##ერ":155,"##ვე":156,"##ომ":157,"##ას":158,"##ობ":159,"##ავ":160,"არ":161,"##ში":162,"##ით":163,"##ენ":164,"სა":165,"##ურ":166,"##ინ":167,"##ეს":168,"##აც":169,"##ება":170,"##ალ":171,"##ორ":172,"##ონ":173,"##და":174,"შე":175,"##ია":176,"##ელ":177,"რომ":178,"##ოს":179,"##ეთ":180,"##ირ":181,"##ები":182,"##ულ":183,"##ების":184,"##ული":185,"##მა":186,"##ზე":187,"##იდ":188,"##ილ":189,"მა":190,"მო":191,"გა":192,"##ართ":193,"##ოდ":194,"##ტი":195,"##ვა":196,"##ახ":197,"ამ":198,"##ველ":199,"მი":200,"##ებს":201,"##ატ":202,"##ემ":203,"##ელი":204,"გამ":205,"##რო":206,"##ათ":207,"##ევ":208,"##ობა":209,"##ვი":210,"##არი":211,"მე":212,"##ვენ":213,"თუ":214,"##რი":215,"##ედ":216,"##ოლ":217,"##გი":218,"რა":219,"##ვის":220,"##ალი":221,"##ებით":222,"გად":223,"ეს":224,"##ური":225,"ის":226,"გან":227,"##რთ":228,"##უს":229,"##იც":230,"##ოგ":231,"##ოვ":232,"##იტ":233,"ან":234,"##აკ":235,"##ყო":236,"##ანი":237,"##დე":238,"##გრ":239,"საქ":240,"##ებული":241,"შემ":242,"##ერი":243,"##ar":244,"სამ":245,"ინ":246,"უნ":247,"##ლის":248,"##ქვ":249,"იმ":250,"##ეტ":251,"##თან":252,"ერთ":253,"##აშ":254,"##იმ":255,"##ოთ":256,"##აცი":257,"##ართველ":258,"არა":259,"##დება":260,"##ლა":261,"უნდა":262,"გამო":263,"##იან":264,"##ენტ":265,"##აზ":266,"##იკ":267,"##ობის":268,"თავ":269,"ას":270,"##ილი":271,"##ძლ":272,"##ცი":273,"##უნ":274,"##აბ":275,"თქ":276,"##an":277,"##ითხ":278,"ვერ":279,"##ცხ":280,"##ისტ":281,"##ებთ":282,"აღ":283,"##არგ":284,"არის":285,"##რა":286,"შეს":287,"##ერთ":288,"ყველ":289,"საქართველ":290,"##ებლ":291,"კი":292,"ჩვენ":293,"##ექ":294,"##უხ":295,"ახ":296,"##იდან":297,"##თვის":298,"##eb":299,"##წყ":300,"##დი":301,"პირ":302,"თან":303,"##ანკ":304,"##იშ":305,"##ისი":306,"ად":307,"იქ":308,"##er":309,"##ვილ":310,"##ოგორ":311,"საკ":312,"მომ":313,"როგორ":314,"სახ":315,"##გრამ":316,"##ტერ":317,"##აქ":318,"##თხ":319,"სხ":320,"##ებას":321,"პრ":322,"##ავს":323,"##is":324,"##არე":325,"დღ":326,"იყო":327,"ყველა":328,"##უმ":329,"##ქვს":330,"დამ":331,"da":332,"მხ":333,"მაგრამ":334,"##ოლი":335,"##ვით":336,"##es":337,"ხელ":338,"უკ":339,"##უფ":340,"ბანკ":341,"რუს":342,"##გან":343,"##ნა":344,"##ანა":345,"##ოდა":346,"რე":347,"##ებულ":348,"მოგ":349,"##ინა":350,"##დეგ":351,"##ნება":352,"##ხმ":353,"აქ":354,"##ცა":355,"მაგ":356,"თქვენ":357,"##იქ":358,"##ad":359,"პრო":360,"##უთ":361,"##არა":362,"რამ":363,"##რის":364,"##თავ":365,"საქართველოს":366,"##ებელი":367,"##00":368,"##it":369,"##უბ":370,"##ტიკ":371,"##ვნ":372,"##მე":373,"##ვალ":374,"##დენ":375,"##am":376,"##ანდ":377,"##ობს":378,"კონ":379,"##წერ":380,"##თა":381,"უფ":382,"##ებში":383,"##სახ":384,"შენ":385,"##ოფ":386,"##არჯ":387,"ჩემ":388,"გადა":389,"##აცია":390,"##უშ":391,"##იფ":392,"##ორი":393,"##ორმ":394,"##at":395,"##ანს":396,"##ადა":397,"##რძ":398,"რო":399,"##ეთი":400,"##ლობა":401,"მინ":402,"##ონო":403,"ქვე":404,"##ვლ":405,"პარ":406,"##lo":407,"ეგ":408,"##როს":409,"##ავი":410,"სხვა":411,"##ჭირ":412,"##ხს":413,"##ავში":414,"##აში":415,"##რე":416,"ასე":417,"##მო":418,"##he":419,"##დგ":420,"##ვარ":421,"რომელი":422,"##ქმ":423,"##ნენ":424,"##ველი":425,"##აღ":426,"##ურად":427,"##ოკ":428,"რაც":429,"##ძლი":430,"##ვილი":431,"##li":432,"##ამო":433,"##იზ":434,"##უკ":435,"შეი":436,"##ემა":437,"ქვეყ":438,"დაგ":439,"დას":440,"##ობთ":441,"როგორც":442,"##ინც":443,"პოლი":444,"თანხ":445,"##წმ":446,"##სახურ":447,"##ორის":448,"##om":449,"##აგ":450,"კიდ":451,"გი":452,"ბარ":453,"წარ":454,"##ელს":455,"##ოლო":456,"მათ":457,"მად":458,"##ალური":459,"##აპ":460,"მის":461,"##შინ":462,"##რულ":463,"##ოზ":464,"##ეგ":465,"##ონი":466,"##ისუფ":467,"##ერს":468,"##ასუხ":469,"##ოტ":470,"##ობას":471,"##ადგ":472,"მიმ":473,"##ებენ":474,"ინტერ":475,"სას":476,"ძალი":477,"სახელ":478,"სტ":479,"##იღ":480,"მოს":481,"მას":482,"არც":483,"##იცი":484,"გავ":485,"გარ":486,"##or":487,"დიდ":488,"##in":489,"##ფორმ":490,"##ავშირ":491,"ხალ":492,"ერთი":493,"##ავთ":494,"##ეხ":495,"ძალიან":496,"##ატონო":497,"ოპ":498,"##ყოფ":499,"##აწ":500,"ქალ":501,"სად":502,"##აფ":503,"##ებზე":504,"##დან":505,"მერ":506,"##ვირ":507,"##ესი":508,"ადამ":509,"შემდეგ":510,"გამარჯ":511,"გას":512,"##ექტ":513,"##av":514,"ბარათ":515,"დღეს":516,"##as":517,"##ოში":518,"##ეთის":519,"##ნის":520,"##პირ":521,"##იგ":522,"##ქვთ":523,"##ისუფლ":524,"მადლობა":525,"##ეკ":526,"რომელიც":527,"იქნება":528,"კარგ":529,"##არტ":530,"##უტ":531,"##ძლება":532,"წლის":533,"ar":534,"##დეს":535,"იყ":536,"##ჩევ":537,"მისი":538,"##ობით":539,"##აცხ":540,"##მი":541,"კომ":542,"##აციის":543,"##ნო":544,"შეიძლება":545,"##გარი":546,"##უდ":547,"##ადი":548,"აქვს":549,"ხომ":550,"##en":551,"##ვიდ":552,"##ეც":553,"##ავლ":554,"რას":555,"##et":556,"##ოლოდ":557,"##აძლ":558,"##წიფ":559,"##აშვილ":560,"ალ":561,"##უქ":562,"##ამდე":563,"##ყვ":564,"##ნიშ":565,"##ხმარ":566,"##დის":567,"დაკ":568,"შესაძლ":569,"##იმე":570,"გვ":571,"ქართ":572,"მხოლოდ":573,"ანგარი":574,"ნომ":575,"##აა":576,"მთავ":577,"##ებოდა":578,"##მწიფ":579,"მან":580,"ბი":581,"ექ":582,"გახ":583,"##ვევა":584,"მს":585,"##ძე":586,"##ბრ":587,"კან":588,"პოლიტიკ":589,"##ეზ":590,"##ob":591,"##სენ":592,"ავ":593,"##ნი":594,"##პრ":595,"##id":596,"##იხ":597,"##ed":598,"ცხ":599,"##ართლ":600,"რამდენ":601,"ჩვენი":602,"##ისა":603,"ხალხ":604,"საბ":605,"ინფორმ":606,"ორ":607,"უკვე":608,"უფრო":609,"კიდევ":610,"სახელმწიფ":611,"##qu":612,"ბანკის":613,"მონ":614,"შემთხ":615,"ისე":616,"##ჯერ":617,"ევ":618,"დავ":619,"##ხვ":620,"მერე":621,"ეკ":622,"წინ":623,"##ურთ":624,"##ოა":625,"##ატი":626,"##დნენ":627,"she":628,"##მის":629,"##დით":630,"##ank":631,"##ვლი":632,"დიდი":633,"##ილის":634,"საკითხ":635,"##ებმა":636,"აზ":637,"განაცხ":638,"##ic":639,"ma":640,"##არგებლ":641,"##არჩ":642,"არს":643,"##უშა":644,"ადამიან":645,"სეს":646,"გამარჯობა":647,"##უსტ":648,"gam":649,"სი":650,"##ჩნ":651,"სწ":652,"მაინც":653,"ვინ":654,"##ისთვის":655,"##ფერი":656,"ბრძ":657,"##on":658,"##ქონ":659,"20":660,"საერთ":661,"##ტურ":662,"რატ":663,"ჩემი":664,"##hi":665,"##არის":666,"##ებოდ":667,"##ინტერ":668,"##ობლ":669,"##არს":670,"გაქვთ":671,"მიმართ":672,"##ისტრ":673,"##ღვ":674,"##ენი":675,"##eba":676,"##ხედ":677,"ანგარიშ":678,"##ახსენ":679,"ამბ":680,"##მატ":681,"სესხ":682,"##ოც":683,"##ინტერეს":684,"აფ":685,"შემთხვევა":686,"შეგი":687,"მთ":688,"საზ":689,"##ახლ":690,"მაშინ":691,"ევრო":692,"##ულის":693,"##უც":694,"##ტყ":695,"##იტომ":696,"##აი":697,"##da":698,"დე":699,"##ოვრ":700,"როცა":701,"იც":702,"##ეში":703,"##ოგად":704,"აბ":705,"ხელისუფლ":706,"an":707,"##ლამ":708,"ახლა":709,"მოხ":710,"##თხოვ":711,"##ებიან":712,"##ებთან":713,"თუმ":714,"##იპ":715,"ჯერ":716,"##ენა":717,"ინტერნ":718,"დაი":719,"დან":720,"კარგად":721,"##დომ":722,"##ეფ":723,"##იანი":724,"მომსახურ":725,"ახალი":726,"##ze":727,"##ნობ":728,"კარ":729,"##ძლიათ":730,"მიშ":731,"ბევ":732,"##ებია":733,"თუმცა":734,"საჭირ":735,"##ცხად":736,"##ორე":737,"დრო":738,"ინტერნეტ":739,"თანხა":740,"დროს":741,"შემთხვევაში":742,"ყო":743,"ეხ":744,"სარგებლ":745,"##ულად":746,"44":747,"ანუ":748,"ოპერ":749,"##ტრ":750,"##ღაც":751,"##ia":752,"##ef":753,"ჩა":754,"##ვეს":755,"ამას":756,"მართ":757,"პასუხ":758,"ბატონო":759,"პატ":760,"##ებიც":761,"##ებაში":762,"შორის":763,"##ექს":764,"##პარ":765,"ვარ":766,"ექს":767,"რატომ":768,"##აშა":769,"##იახ":770,"საფ":771,"ამა":772,"შესაძლებელი":773,"##ინი":774,"აგ":775,"##ონის":776,"re":777,"##ზავ":778,"პროც":779,"აკ":780,"##ენტი":781,"ნახ":782,"ამის":783,"შეგიძლიათ":784,"რომელ":785,"თბ":786,"პრეზ":787,"უმ":788,"##ov":789,"აი":790,"იყოს":791,"##იაში":792,"ორი":793,"##წუხ":794,"სულ":795,"##ვად":796,"##ალურ":797,"##ერთი":798,"##მინ":799,"მოგახსენ":800,"ქალბ":801,"##arj":802,"თამ":803,"##აზე":804,"##პასუხ":805,"##ვას":806,"რად":807,"განს":808,"##ფერ":809,"200":810,"არჩევ":811,"##ებდა":812,"##quo":813,"კონს":814,"მშ":815,"##იათ":816,"მალ":817,"საქმე":818,"gamarj":819,"##ტის":820,"პრეზიდ":821,"##ვრ":822,"##ებლად":823,"არიან":824,"იგი":825,"ყოფ":826,"##ba":827,"სარგებლობთ":828,"##dquo":829,"gamarjob":830,"ასევე":831,"##ოდეს":832,"##ურს":833,"დიახ":834,"ტერ":835,"##კითხ":836,"##ალაქ":837,"##ასი":838,"##დათ":839,"##აძ":840,"სპ":841,"##ფიქ":842,"##el":843,"##უალ":844,"კოდ":845,"##ac":846,"##ახებ":847,"ცენტ":848,"##ავალ":849,"##ვედ":850,"ყოველ":851,"მიერ":852,"##ძლია":853,"ფილი":854,"ავტ":855,"გადახ":856,"ლარი":857,"სიტ":858,"##il":859,"##აკეთ":860,"მოგახსენებთ":861,"განაცხადა":862,"კითხ":863,"##ადგენ":864,"##ეთში":865,"ბრ":866,"##ყენ":867,"შესახებ":868,"ნაც":869,"მაქვს":870,"##ლამენტ":871,"ქართველ":872,"##ტკ":873,"სახელმწიფო":874,"##სირ":875,"##ლებ":876,"##ცემ":877,"##რობ":878,"დაკავშირ":879,"##ანია":880,"##რომ":881,"##ქმედ":882,"##დინ":883,"##ქალაქ":884,"ერთად":885,"ხო":886,"##არიცხ":887,"ახალ":888,"ნუ":889,"##ევს":890,"##ებისა":891,"თავის":892,"##მად":893,"##arg":894,"მოგვ":895,"##ცია":896,"##აწილ":897,"##ur":898,"##შვ":899,"მეტი":900,"რაღაც":901,"ვი":902,"##გრძ":903,"მეტ":904,"##ხაზ":905,"##ასწ":906,"ქვეყანა":907,"ძალ":908,"ro":909,"##დილ":910,"##ათვის":911,"პრობლ":912,"##ირი":913,"ვის":914,"ასეთი":915,"##ax":916,"##აროდ":917,"ქალბატონო":918,"ირ":919,"##ვნელ":920,"ევროპ":921,"##ებისთვის":922,"გიორ":923,"საქართველოში":924,"##ჩი":925,"##აციას":926,"საზოგად":927,"წინა":928,"##ამართლ":929,"##se":930,"##ამდ":931,"საათ":932,"რადგან":933,"აღარ":934,"მეორე":935,"საზოგადო":936,"##მან":937,"to":938,"ფაქ":939,"##კვე":940,"##ge":941,"##al":942,"სწორ":943,"gad":944,"თბილის":945,"ონ":946,"##ამოწმ":947,"##ვლის":948,"მიიღ":949,"##ერიკ":950,"ელ":951,"ხდება":952,"##კლ":953,"ჩამ":954,"##წვ":955,"მალე":956,"##იცხ":957,"დაზ":958,"##ევა":959,"გახლ":960,"სამწუხ":961,"##ავად":962,"ხარ":963,"##პრეს":964,"არსებ":965,"##ir":966,"სადაც":967,"##ზი":968,"გზ":969,"##ნიშვნელ":970,"##დგომ":971,"##ებრი":972,"##იერ":973,"შევ":974,"##ნებ":975,"წარმ":976,"##shi":977,"მამ":978,"##რთხ":979,"მომსახურებით":980,"აღნიშ":981,"ეხლა":982,"##ანის":983,"##ter":984,"აშ":985,"##აღმ":986,"##არია":987,"##აბამ":988,"ადგ":989,"##რად":990,"##ელის":991,"201":992,"საშ":993,"აუც":994,"##მით":995,"##ურნ":996,"##adlo":997,"##ოგი":998,"##ონომ":999,"აუცილ":1000,"##აჩ":1001,"გაუ":1002,"თქვენი":1003,"##აშვილმა":1004,"გაგ":1005,"თვით":1006,"საუბ":1007,"bank":1008,"##ბრალ":1009,"აფხაზ":1010,"19":1011,"##ლება":1012,"თემა":1013,"##art":1014,"##ციის":1015,"გს":1016,"ბოლ":1017,"გინ":1018,"##შვილ":1019,"ვიცი":1020,"მგ":1021,"კაც":1022,"საკუთ":1023,"##ლაინ":1024,"ათ":1025,"კარგი":1026,"##არდ":1027,"##ro":1028,"ფორ":1029,"გარდა":1030,"##აცემ":1031,"##ობაში":1032,"##ზად":1033,"ონლაინ":1034,"##ობენ":1035,"სამწუხაროდ":1036,"არავ":1037,"ჩამო":1038,"ქვეყნის":1039,"##ინო":1040,"10":1041,"ალბ":1042,"ნომერ":1043,"მნიშვნელ":1044,"##eft":1045,"##ნების":1046,"left":1047,"გადას":1048,"ბრძანდ":1049,"იმა":1050,"სიმ":1051,"ამერიკ":1052,"გახლავთ":1053,"##qv":1054,"პირველ":1055,"გიორგი":1056,"##წყვე":1057,"##ოსტ":1058,"ცხოვრ":1059,"##ელეფ":1060,"ნაკ":1061,"მთავრ":1062,"##ვალი":1063,"##აშვილი":1064,"შეგ":1065,"უს":1066,"ვიდ":1067,"წყ":1068,"##აღმდეგ":1069,"ბოლო":1070,"მარ":1071,"ქართული":1072,"რუსეთის":1073,"##კრ":1074,"in":1075,"##ულია":1076,"რომლ":1077,"##ანას":1078,"გსურთ":1079,"სან":1080,"##შე":1081,"კომპ":1082,"ყველაზე":1083,"##დებით":1084,"##განი":1085,"ხალხი":1086,"მილი":1087,"##ძი":1088,"ადგილ":1089,"##ზრ":1090,"##ებულია":1091,"##ელოდ":1092,"არაა":1093,"პრეზიდენტ":1094,"##იბ":1095,"სერ":1096,"მარტ":1097,"წელს":1098,"##ეთს":1099,"##დეთ":1100,"გადავ":1101,"ეტ":1102,"ვინც":1103,"პარლამენტ":1104,"madlo":1105,"რამე":1106,"##დინარე":1107,"მუშა":1108,"ეკონომ":1109,"შეუ":1110,"##ივ":1111,"ალბათ":1112,"##რები":1113,"რეს":1114,"##ონს":1115,"დაც":1116,"იმის":1117,"##წერეთ":1118,"##ხელ":1119,"##მს":1120,"##იშნ":1121,"უბრალ":1122,"მიღ":1123,"გვა":1124,"##ულტ":1125,"თით":1126,"##კი":1127,"მსოფ":1128,"მინდა":1129,"##ინის":1130,"ყველაფერი":1131,"ღირ":1132,"##iv":1133,"მეც":1134,"##ომატ":1135,"ფეხ":1136,"ფილიალ":1137,"##ობრი":1138,"##ებო":1139,"for":1140,"გარე":1141,"ამიტომ":1142,"ოპოზ":1143,"მკ":1144,"##რული":1145,"##ვლა":1146,"ექსპრეს":1147,"##წოდ":1148,"ბევრი":1149,"დაბ":1150,"##icx":1151,"ისტ":1152,"##წინ":1153,"##აზრ":1154,"მსოფლი":1155,"##დები":1156,"##რს":1157,"##ობდა":1158,"##ებად":1159,"##როვნ":1160,"ტერიტ":1161,"მათი":1162,"##ტკიც":1163,"##ოდის":1164,"მიზ":1165,"##პორ":1166,"##ეტი":1167,"საჭირო":1168,"##ნები":1169,"ეკონომიკ":1170,"##ანტ":1171,"##რით":1172,"დარ":1173,"##ჭირდება":1174,"მეს":1175,"საერთოდ":1176,"შესაბამ":1177,"rom":1178,"შეხ":1179,"ბიძ":1180,"თანამ":1181,"##დაც":1182,"##ეტის":1183,"საქმ":1184,"15":1185,"ბავ":1186,"საშუალ":1187,"განცხად":1188,"##ak":1189,"მოქალაქ":1190,"ნათ":1191,"სამართ":1192,"##ლე":1193,"##ვალის":1194,"სის":1195,"##ცირ":1196,"##იჯ":1197,"მოძ":1198,"პირველი":1199,"##ილა":1200,"##თქ":1201,"##ებები":1202,"##ეთა":1203,"##ფას":1204,"##ალურად":1205,"ტრ":1206,"##ებოდეთ":1207,"პირად":1208,"##იცია":1209,"##ly":1210,"##ოვნ":1211,"##რების":1212,"იმედ":1213,"##აციონ":1214,"განმ":1215,"გუ":1216,"წელი":1217,"დაკავშირებით":1218,"##ებაზე":1219,"##ალდ":1220,"##ტო":1221,"##ot":1222,"არაფერი":1223,"ხოლო":1224,"##ელსაც":1225,"##პი":1226,"რასაც":1227,"##ავა":1228,"##le":1229,"##ძის":1230,"##ყვარ":1231,"არას":1232,"დღე":1233,"შეც":1234,"##est":1235,"##ალიზ":1236,"##აშვილის":1237,"სააკ":1238,"როდეს":1239,"აბა":1240,"კვირ":1241,"##ულს":1242,"##ლები":1243,"##არო":1244,"##ავალი":1245,"თქმით":1246,"ver":1247,"რამდენიმე":1248,"##ეხმარ":1249,"##ონა":1250,"##ალის":1251,"ისევ":1252,"უბრალოდ":1253,"##განიზ":1254,"##რაფ":1255,"წერ":1256,"კონსულტ":1257,"ბრძანდებოდეთ":1258,"##წყვეტ":1259,"##ვერ":1260,"##ობაზე":1261,"საგ":1262,"##ვიდა":1263,"##უჩ":1264,"##ებათ":1265,"მით":1266,"##მაც":1267,"##ონია":1268,"როდესაც":1269,"##ამს":1270,"##ენის":1271,"##ზავნ":1272,"##ith":1273,"100":1274,"##ლების":1275,"იმიტომ":1276,"##us":1277,"რაიმე":1278,"რომელსაც":1279,"გიპასუხ":1280,"##ეული":1281,"##ქონდა":1282,"with":1283,"ნომერზე":1284,"##ლობ":1285,"სურ":1286,"ანგარიშზე":1287,"##დიდა":1288,"ცოტ":1289,"##ქტ":1290,"რეგი":1291,"იმას":1292,"თემ":1293,"tan":1294,"##ინგ":1295,"ინფორმაცია":1296,"##ტან":1297,"წევ":1298,"##ლიან":1299,"შედეგ":1300,"გაა":1301,"ორგანიზ":1302,"##ბი":1303,"სკ":1304,"გმად":1305,"ბანკში":1306,"##ვითარ":1307,"ეტაპ":1308,"პოლიტიკური":1309,"დედ":1310,"##გავს":1311,"##ოდი":1312,"სოფ":1313,"##ებელია":1314,"გვერ":1315,"მობ":1316,"აღნიშნ":1317,"ნომერი":1318,"მინისტრ":1319,"##ინტერესებს":1320,"წარმო":1321,"##ენს":1322,"თურ":1323,"თავისი":1324,"##ჯახ":1325,"##ოლის":1326,"##esx":1327,"არსებობს":1328,"სწორედ":1329,"madloba":1330,"სატ":1331,"გიპასუხებთ":1332,"##ორია":1333,"tu":1334,"##ელები":1335,"ნების":1336,"აქტი":1337,"12":1338,"ბარათის":1339,"##ურის":1340,"გადარიცხ":1341,"the":1342,"ბარათი":1343,"თანხის":1344,"შემო":1345,"##კავშირ":1346,"##ასთან":1347,"##ნიკ":1348,"##გუფ":1349,"ფაქტ":1350,"##ve":1351,"##კო":1352,"შეძლ":1353,"შეხვედ":1354,"აქვთ":1355,"##ოვს":1356,"სამუშა":1357,"##ნეს":1358,"##ალით":1359,"წა":1360,"კაცი":1361,"დაზუსტ":1362,"დემ":1363,"##გრძელ":1364,"##ლობთ":1365,"##ari":1366,"კითხვა":1367,"##ეობის":1368,"პატი":1369,"##თხოვთ":1370,"განვითარ":1371,"##უძ":1372,"კანდიდა":1373,"თავი":1374,"ტყ":1375,"მაღ":1376,"მეგ":1377,"ვა":1378,"საპ":1379,"##ვიდობ":1380,"dam":1381,"სამინ":1382,"##მას":1383,"##ლიკ":1384,"##arat":1385,"ოპერატ":1386,"##ish":1387,"ეროვნ":1388,"st":1389,"##ebs":1390,"##ქს":1391,"სესხის":1392,"tanx":1393,"გამოს":1394,"##ბერ":1395,"ნაციონ":1396,"კრი":1397,"##არდა":1398,"gamarjobat":1399,"ამო":1400,"##აშორის":1401,"ნებისმი":1402,"##ადის":1403,"##კეთ":1404,"ჩვენს":1405,"##ced":1406,"##უპ":1407,"##ამი":1408,"##ბურთ":1409,"ქნო":1410,"გახს":1411,"გეგ":1412,"თქმა":1413,"ფიქ":1414,"მარტო":1415,"ადამიანი":1416,"გუნ":1417,"requ":1418,"clo":1419,"ვართ":1420,"მართლა":1421,"შენი":1422,"ch":1423,"##ვიან":1424,"მთელი":1425,"##ეჭ":1426,"მიდ":1427,"request":1428,"##სა":1429,"close":1430,"შექმ":1431,"##დებოდა":1432,"საკითხის":1433,"forced":1434,"სასამართლ":1435,"მოკლ":1436,"გავი":1437,"forcedly":1438,"##ჭერ":1439,"ნაბ":1440,"გამომ":1441,"პრემ":1442,"##ამდვილ":1443,"##ციელ":1444,"გუშინ":1445,"ენ":1446,"##gar":1447,"##ხე":1448,"##ლო":1449,"ძირ":1450,"##ულისხმ":1451,"##შიც":1452,"##არეს":1453,"თე":1454,"მოძრა":1455,"##ყვან":1456,"პარტი":1457,"ნიშნ":1458,"სო":1459,"##ელმა":1460,"გთხოვთ":1461,"##ვალისწინ":1462,"##ულა":1463,"მორ":1464,"ოჯახ":1465,"##ent":1466,"მონაცემ":1467,"ასეთ":1468,"მდგომ":1469,"##ტიტ":1470,"##კენ":1471,"##od":1472,"წინააღმდეგ":1473,"რეგიონ":1474,"მია":1475,"გე":1476,"სამუშაო":1477,"##ძღვ":1478,"ტიპ":1479,"კანონ":1480,"ჯგუფ":1481,"დაგი":1482,"ისეთი":1483,"##ალია":1484,"დარჩ":1485,"##კურ":1486,"საჭიროა":1487,"##ილება":1488,"მოუ":1489,"##ფერს":1490,"##ჩვენ":1491,"##რება":1492,"თავად":1493,"##წყო":1494,"გაი":1495,"##ოცხ":1496,"განხ":1497,"არამ":1498,"##ვევ":1499,"##ბრუნ":1500,"##ინანს":1501,"გააკეთ":1502,"##ენილი":1503,"##შვილი":1504,"წარმომ":1505,"##ელოდეთ":1506,"საქართველო":1507,"##ახლო":1508,"ურთ":1509,"გამოი":1510,"##ელია":1511,"უკან":1512,"მაგალით":1513,"##ul":1514,"##მართ":1515,"##ოვანი":1516,"მოქალაქე":1517,"##ალისტ":1518,"##ლია":1519,"##ვეთ":1520,"შესაძლებელია":1521,"##ყურ":1522,"##ისმ":1523,"##ყიდ":1524,"##ლად":1525,"##დელ":1526,"##ლით":1527,"სრული":1528,"მაინტერესებს":1529,"##კრეტ":1530,"ით":1531,"სამინისტ":1532,"ქვეყანაში":1533,"24":1534,"##რედ":1535,"sesx":1536,"##გრე":1537,"შეეხ":1538,"##რც":1539,"##ლობაში":1540,"ოპოზიცი":1541,"გამოც":1542,"ვით":1543,"##res":1544,"ყველას":1545,"თავს":1546,"##აპარ":1547,"გადაწყვეტ":1548,"##ერხ":1549,"ოც":1550,"სახელმწიფოს":1551,"ex":1552,"კორ":1553,"##ეულ":1554,"დეპ":1555,"ქალაქ":1556,"##აშორისო":1557,"წეს":1558,"##შრომ":1559,"##va":1560,"##ონდ":1561,"barat":1562,"მატ":1563,"ისინი":1564,"ქართველი":1565,"საინტერეს":1566,"##ნელ":1567,"რომლებიც":1568,"ცოტა":1569,"##ap":1570,"##ავდა":1571,"##ებიდან":1572,"##her":1573,"ოს":1574,"მონაწილ":1575,"##დას":1576,"##ლებში":1577,"##რეს":1578,"ლიდ":1579,"##ამე":1580,"##არება":1581,"##იერთ":1582,"პრობლემა":1583,"##ომისი":1584,"ნაწ":1585,"##ათა":1586,"დამატ":1587,"##ვნენ":1588,"ოფ":1589,"საერთაშორისო":1590,"##ვათ":1591,"იდე":1592,"##ანგ":1593,"##იდა":1594,"მინისტ":1595,"ბნო":1596,"აღდგ":1597,"წარმატ":1598,"ჩემს":1599,"##ებლობა":1600,"##წმუნ":1601,"##რიდან":1602,"მოგვწერეთ":1603,"დაფ":1604,"ინს":1605,"##ტრო":1606,"##ებსაც":1607,"საიტ":1608,"##qvs":1609,"მოსახლ":1610,"გულ":1611,"##აძე":1612,"bdquo":1613,"ცნობ":1614,"მრ":1615,"sa":1616,"ურთიერთ":1617,"დედა":1618,"ფორუმ":1619,"დამელოდეთ":1620,"##vi":1621,"ra":1622,"გმადლობთ":1623,"ხელი":1624,"##ორციელ":1625,"დავით":1626,"##ფიქსირ":1627,"ტერიტორი":1628,"##დიდ":1629,"##olo":1630,"##ებების":1631,"gamarjoba":1632,"karg":1633,"ara":1634,"##ნახ":1635,"ივ":1636,"##ძემ":1637,"ნატ":1638,"ხაზ":1639,"##gor":1640,"საბჭ":1641,"min":1642,"სისტ":1643,"სისხ":1644,"მარა":1645,"##ებდნენ":1646,"გარეშე":1647,"შემი":1648,"ბავშვ":1649,"დაზუსტება":1650,"##ძღვან":1651,"##ერძ":1652,"მდგომარე":1653,"შემოს":1654,"##ვამ":1655,"სერვის":1656,"ვიღ":1657,"კლ":1658,"##მძღვან":1659,"##უზ":1660,"წარმომადგენ":1661,"კონკრეტ":1662,"##ტიზ":1663,"კულ":1664,"##ებსა":1665,"სატელეფ":1666,"მივ":1667,"##აპარაკ":1668,"##ცხო":1669,"##ნით":1670,"მიზე":1671,"##ენდ":1672,"##მდ":1673,"##ათი":1674,"##ქი":1675,"##ექტი":1676,"კიდე":1677,"პატარა":1678,"კეთ":1679,"სატელეფონო":1680,"##ldquo":1681,"წამ":1682,"##ასხ":1683,"დაგეხმარ":1684,"##არაღ":1685,"##lia":1686,"დანაშა":1687,"აირ":1688,"შესაბამის":1689,"იქნ":1690,"##წავლ":1691,"##უსი":1692,"##ევის":1693,"ზურ":1694,"ვიც":1695,"იგივე":1696,"მემ":1697,"თვე":1698,"am":1699,"##ეზე":1700,"##უგ":1701,"გერ":1702,"ხალხს":1703,"ფრ":1704,"##ხვავ":1705,"გაზ":1706,"##აკუთ":1707,"##ვნის":1708,"ატ":1709,"ფეხბურთ":1710,"##ილია":1711,"დონ":1712,"ეგრე":1713,"ზე":1714,"##im":1715,"##უღ":1716,"##ოპ":1717,"##ვები":1718,"##კა":1719,"პროგრამ":1720,"პრობლემ":1721,"##mov":1722,"rogor":1723,"მსგავს":1724,"ზუსტ":1725,"განმავ":1726,"სრულ":1727,"თვალ":1728,"შეეხება":1729,"##ებლო":1730,"##ერის":1731,"კაი":1732,"დემოკ":1733,"##ძახ":1734,"##ურვ":1735,"შემიძლია":1736,"პერი":1737,"ბოლოს":1738,"რომლის":1739,"by":1740,"კონფ":1741,"un":1742,"მიმდინარე":1743,"##დო":1744,"ფილიალში":1745,"განმავლობაში":1746,"##ორს":1747,"##ou":1748,"##ებრივი":1749,"საუკ":1750,"ჟურნ":1751,"ნაბიჯ":1752,"პროცეს":1753,"ადრე":1754,"##აციით":1755,"მოხდა":1756,"ინტერეს":1757,"სამსახურ":1758,"##idz":1759,"ბიზ":1760,"გვაქვს":1761,"##ეშ":1762,"გაკეთ":1763,"ერთმან":1764,"##ოლმე":1765,"##ოდენ":1766,"##ღა":1767,"მეგობ":1768,"##თანხმ":1769,"დოლ":1770,"განსხვავ":1771,"რამდენი":1772,"გინდა":1773,"##ამბ":1774,"##რებით":1775,"ზოგ":1776,"საკუთარი":1777,"##არჩევ":1778,"shev":1779,"სმს":1780,"მიშას":1781,"##ყრ":1782,"##ხედრო":1783,"##ოლოგი":1784,"პატრი":1785,"##ციალური":1786,"##რცელ":1787,"პრემიერ":1788,"##არული":1789,"ქუჩ":1790,"სესხი":1791,"##ნას":1792,"##ტა":1793,"##დენი":1794,"ღირს":1795,"თქვა":1796,"##შვიდობ":1797,"რესპ":1798,"##ყოფილ":1799,"თამაშ":1800,"ვისაც":1801,"სერი":1802,"##იმუმ":1803,"##ზეც":1804,"ტელ":1805,"##დაპირ":1806,"##ებელ":1807,"დაუ":1808,"ხელისუფლების":1809,"##ვლელ":1810,"##თავაზ":1811,"დახმარ":1812,"##რედიტ":1813,"ხელმძღვან":1814,"ერ":1815,"##კის":1816,"##ეები":1817,"კახ":1818,"ბიჭ":1819,"კულტურ":1820,"##ეღ":1821,"პოზ":1822,"დავი":1823,"##ლომ":1824,"ხოლმე":1825,"საკომისი":1826,"კვლ":1827,"angar":1828,"მიწ":1829,"##რატი":1830,"##amd":1831,"ძირით":1832,"##ხსენ":1833,"##ერთიან":1834,"განათ":1835,"##დებათ":1836,"ერთხელ":1837,"ვიდრე":1838,"ოპერატორი":1839,"გაც":1840,"##ჩნია":1841,"##იტან":1842,"##ყავს":1843,"##ებაც":1844,"##გე":1845,"##ებაა":1846,"##ლოკ":1847,"ot":1848,"მეთ":1849,"გადმ":1850,"პროდ":1851,"ხან":1852,"##ტიურ":1853,"gav":1854,"##იარ":1855,"შეკითხ":1856,"ფული":1857,"დამატებით":1858,"განსაკუთ":1859,"##ებებს":1860,"თქვენს":1861,"##ფრ":1862,"ცვლი":1863,"უბ":1864,"ნიშნავს":1865,"##os":1866,"##ამა":1867,"##ალა":1868,"აუცილებლად":1869,"მოთხოვ":1870,"ახლ":1871,"უც":1872,"ისტორი":1873,"shem":1874,"ყოფილი":1875,"მიტ":1876,"თვითონ":1877,"part":1878,"##დარ":1879,"ინფორმაციის":1880,"##ესტ":1881,"რუსეთი":1882,"თავისუფლ":1883,"##ანიშ":1884,"გათ":1885,"##წერა":1886,"მაგას":1887,"სხვად":1888,"დაუკ":1889,"აზრით":1890,"other":1891,"ქონ":1892,"##pres":1893,"##20":1894,"სახელი":1895,"ემ":1896,"ანგარიში":1897,"##უთხ":1898,"თანამშრომ":1899,"##ედან":1900,"##რია":1901,"სიტყ":1902,"გასაგ":1903,"##ეო":1904,"##დებიან":1905,"იხ":1906,"დაგვი":1907,"გადამოწმ":1908,"მძ":1909,"##ig":1910,"##ურა":1911,"ანაბ":1912,"თა":1913,"##idan":1914,"პოსტ":1915,"ნამდვილ":1916,"##ასხვა":1917,"უფლებ":1918,"თბილისის":1919,"ზუსტად":1920,"##წერე":1921,"პასუხი":1922,"ვთქ":1923,"ფას":1924,"##ნიერ":1925,"ნიკ":1926,"მონაწილე":1927,"გენ":1928,"ზოგად":1929,"##ნელი":1930,"##ებინ":1931,"მთავარი":1932,"##ებლობის":1933,"საუბარი":1934,"##უბლიკ":1935,"სამი":1936,"მგონი":1937,"ვადა":1938,"##უჯ":1939,"იგ":1940,"ცენტრ":1941,"ჩანს":1942,"ბაზ":1943,"სხვადასხვა":1944,"ახალგ":1945,"ვიღაც":1946,"წუთ":1947,"party":1948,"##ებლის":1949,"##moved":1950,"რეჟ":1951,"მიშა":1952,"პროდუქ":1953,"##ag":1954,"##uli":1955,"გვი":1956,"me":1957,"სომ":1958,"რუსეთ":1959,"მოვ":1960,"##ლაპარ":1961,"ეტაპზე":1962,"არამედ":1963,"##წარ":1964,"removed":1965,"გაით":1966,"ხმა":1967,"##ebi":1968,"##აციო":1969,"main":1970,"იღ":1971,"##ალს":1972,"##მინისტრ":1973,"გოგ":1974,"მზად":1975,"პირობ":1976,"##ანაირი":1977,"11":1978,"აღმო":1979,"tanxa":1980,"30":1981,"მომავალ":1982,"სტატ":1983,"##ცხოვრ":1984,"მიხედ":1985,"ბანკომატ":1986,"##ჯდომ":1987,"##შია":1988,"##ასა":1989,"##უცი":1990,"##ლაპარაკ":1991,"ღმ":1992,"უცხო":1993,"##la":1994,"##წევ":1995,"ეთ":1996,"შუ":1997,"maqvs":1998,"საფრთხ":1999,"ხალხის":2000,"ბატ":2001,"არავინ":2002,"დანარჩ":2003,"ამბობს":2004,"გვე":2005,"გის":2006,"სანამ":2007,"მოქმედ":2008,"sh":2009,"შესაძლოა":2010,"##დელი":2011,"დამო":2012,"ეროვნული":2013,"##რებს":2014,"ციხ":2015,"##ოლა":2016,"გადასახ":2017,"შესრულ":2018,"მწვ":2019,"##ატარ":2020,"##bank":2021,"სერიოზ":2022,"##ვეულ":2023,"##რონ":2024,"##ეტყ":2025,"ერთერთი":2026,"ფორმ":2027,"პლ":2028,"სამხედრო":2029,"მართლ":2030,"იან":2031,"აკეთ":2032,"ლარ":2033,"##ოთა":2034,"მობილ":2035,"უკრა":2036,"დახ":2037,"დაიწყ":2038,"##თი":2039,"რესპუბლიკ":2040,"დაახლო":2041,"##ვარი":2042,"mag":2043,"მომხ":2044,"##ირად":2045,"ადამიანის":2046,"ნამდვილად":2047,"კამ":2048,"გვერდ":2049,"ფილ":2050,"გამოვ":2051,"##ამაშ":2052,"თვის":2053,"ზემ":2054,"ინფორმაციას":2055,"##პერ":2056,"##რძანდ":2057,"##ვების":2058,"mom":2059,"##ევანდ":2060,"##ემბ":2061,"მარი":2062,"დღის":2063,"იქნებ":2064,"უფლება":2065,"##რიცხ":2066,"ახალგაზრ":2067,"##ალკ":2068,"გარკვე":2069,"##იშვილ":2070,"##მენ":2071,"minda":2072,"##რატ":2073,"##ცეს":2074,"##ობაა":2075,"##ვიღ":2076,"უკეთ":2077,"##tern":2078,"ვნახ":2079,"ქართულ":2080,"##აკლი":2081,"რათა":2082,"ყოველთვის":2083,"ხელისუფლება":2084,"ხართ":2085,"მანქ":2086,"მოკლედ":2087,"ვინმ":2088,"არადა":2089,"დასავლ":2090,"##უკიდ":2091,"მოწ":2092,"მაგარი":2093,"##ევან":2094,"ნაწილ":2095,"თორ":2096,"დადგ":2097,"თურქ":2098,"##ურვებთ":2099,"წამო":2100,"დაგემ":2101,"##ივერს":2102,"ბიზნეს":2103,"##უდი":2104,"დეტ":2105,"##ნილი":2106,"უარ":2107,"დაფიქსირ":2108,"##იჭ":2109,"მხრიდან":2110,"##ძეს":2111,"იცის":2112,"საინტერესო":2113,"##ანსი":2114,"##პარატ":2115,"ზოგი":2116,"##უსის":2117,"იყვნენ":2118,"რიგ":2119,"ჩავ":2120,"შესაბამისად":2121,"აპ":2122,"angarish":2123,"ნახევ":2124,"##ამის":2125,"ამაზე":2126,"პროფ":2127,"მომხმარ":2128,"ზურაბ":2129,"##ობათ":2130,"სექტ":2131,"დამოუკიდ":2132,"##დღ":2133,"მაკ":2134,"##უხედ":2135,"##ტს":2136,"გრძ":2137,"დაიწყო":2138,"რომელმაც":2139,"მთავრობის":2140,"კალ":2141,"დაწყ":2142,"##რავლ":2143,"ინაშვილმა":2144,"##მარ":2145,"##ეტეს":2146,"ალი":2147,"##ing":2148,"პარტ":2149,"მც":2150,"##რიგ":2151,"##wer":2152,"სამართლის":2153,"აცხად":2154,"##ავით":2155,"მითხ":2156,"მსოფლიო":2157,"##არჩევნო":2158,"ნებისმიერ":2159,"##ინე":2160,"##ხრ":2161,"სც":2162,"სისხლის":2163,"##ადო":2164,"სამინისტროს":2165,"##teres":2166,"##რივ":2167,"დათ":2168,"##ასრულ":2169,"აშშ":2170,"##აზღვ":2171,"პირდაპირ":2172,"შეხვედრა":2173,"##re":2174,"##ვია":2175,"##იის":2176,"##არაუდ":2177,"რის":2178,"კოდი":2179,"##ირებული":2180,"##გა":2181,"##შვიდობებით":2182,"გარემ":2183,"##ti":2184,"##ელში":2185,"##ჩნდა":2186,"კატ":2187,"ქმ":2188,"დაა":2189,"##ანკო":2190,"##რუნ":2191,"სიტუ":2192,"##ლესი":2193,"დი":2194,"unda":2195,"წინასწ":2196,"##გისტრ":2197,"მიუხედ":2198,"მაგის":2199,"##კაც":2200,"თავმ":2201,"##ამოს":2202,"ნინო":2203,"დაგემშვიდობებით":2204,"დაბრუნ":2205,"ტელეფ":2206,"ყოფილა":2207,"მაგალითად":2208,"გისურვებთ":2209,"გაერთიან":2210,"ივანი":2211,"nom":2212,"##იშვილი":2213,"ოქ":2214,"intern":2215,"##ყარ":2216,"ჰქონდა":2217,"თბილისში":2218,"მოხდება":2219,"რით":2220,"##bl":2221,"რეჟიმ":2222,"##დილი":2223,"##ეა":2224,"შინა":2225,"##ანიშნ":2226,"არჩევნ":2227,"##აფრთხ":2228,"აზრი":2229,"##ადად":2230,"დეპუტ":2231,"ელექტ":2232,"##არკ":2233,"უნივერს":2234,"საკუთარ":2235,"##ენტის":2236,"ლაპარაკ":2237,"აირჩი":2238,"##ch":2239,"ძლი":2240,"##ლეს":2241,"##ისმგ":2242,"anu":2243,"##ოხ":2244,"25":2245,"ბუნ":2246,"kargit":2247,"გასაგებია":2248,"გამარჯობათ":2249,"##დებ":2250,"დაუკავშირ":2251,"##ol":2252,"##ინდა":2253,"კარგით":2254,"##eli":2255,"მიი":2256,"##lec":2257,"##ართული":2258,"მიუხედავად":2259,"როდის":2260,"გატ":2261,"ბედ":2262,"საღ":2263,"##კარ":2264,"მოითხ":2265,"შეძლებთ":2266,"დავა":2267,"სახით":2268,"თავმჯდომ":2269,"##ირება":2270,"##ებამ":2271,"##ევი":2272,"##რებული":2273,"hr":2274,"უშ":2275,"სავ":2276,"საზოგადოების":2277,"##იქით":2278,"ანგარიშის":2279,"მანდ":2280,"მაქს":2281,"18":2282,"დღევანდ":2283,"იცი":2284,"საბანკო":2285,"##რჩ":2286,"სინ":2287,"href":2288,"ხოდა":2289,"##ავენ":2290,"##fil":2291,"საკომისიო":2292,"##ოვა":2293,"საქმეთა":2294,"ოკ":2295,"targ":2296,"##ინცი":2297,"კონსულტაცია":2298,"##ულო":2299,"პაროლი":2300,"##teresebs":2301,"target":2302,"##აქტიურ":2303,"##kap":2304,"##ილს":2305,"on":2306,"ტყუ":2307,"სტანდ":2308,"##აკი":2309,"ხელს":2310,"##blank":2311,"targetblank":2312,"გულისხმ":2313,"გავაკეთ":2314,"##ალიბ":2315,"დგ":2316,"სპე":2317,"##დეგი":2318,"სამო":2319,"ჰქონ":2320,"##წია":2321,"internet":2322,"მესამე":2323,"პარლამენტის":2324,"დემოკრატი":2325,"რეკ":2326,"##ერო":2327,"ყველაფერს":2328,"მიხედვით":2329,"იტყ":2330,"##ავლის":2331,"აღნიშნული":2332,"##ლიდან":2333,"1e":2334,"##წი":2335,"საკმა":2336,"##იტი":2337,"პუტ":2338,"თუნ":2339,"ღმერთ":2340,"მიხე":2341,"მუხ":2342,"მოახ":2343,"##ევიზ":2344,"00":2345,"ინტ":2346,"ვიზ":2347,"საკრედიტ":2348,"##xm":2349,"მეშ":2350,"##olor":2351,"##ინება":2352,"##rofil":2353,"გადმო":2354,"##deba":2355,"##ტრუქ":2356,"##ანში":2357,"of":2358,"კანონი":2359,"##ლიანი":2360,"##ms":2361,"შვილ":2362,"sty":2363,"##ოკიდ":2364,"პრეზიდენტი":2365,"სომხ":2366,"ჟურნალისტ":2367,"წას":2368,"ქალი":2369,"##ლში":2370,"##ებულება":2371,"ვინმე":2372,"##eri":2373,"##rofiles":2374,"##kaprofiles":2375,"##ba6":2376,"##ზეა":2377,"დაწ":2378,"##lecolor":2379,"stylecolor":2380,"##ეი":2381,"პირიქით":2382,"ესეც":2383,"hrefkaprofiles":2384,"##5ba6":2385,"1e5ba6":2386,"გურ":2387,"##წევს":2388,"საარჩევნო":2389,"##იდი":2390,"lari":2391,"მსგავსი":2392,"##ომდე":2393,"პროკურ":2394,"##ვს":2395,"ნაწილი":2396,"ერთადერთი":2397,"##აუბ":2398,"##ოების":2399,"##ობების":2400,"არავის":2401,"საკრედიტო":2402,"კოლ":2403,"პერიოდ":2404,"თუნდაც":2405,"ოღ":2406,"იქნებოდა":2407,"მოწმ":2408,"##იქსირ":2409,"არჩევნების":2410,"##არქ":2411,"##შვილის":2412,"##ზის":2413,"##ორჩ":2414,"17":2415,"პასუხისმგ":2416,"საგარე":2417,"##ვინ":2418,"სტანდარტ":2419,"ტექ":2420,"გამოყენ":2421,"პროექტ":2422,"##კვეთ":2423,"##როვ":2424,"##ჯელ":2425,"ებ":2426,"14":2427,"დეკ":2428,"##იკითხ":2429,"ნორმ":2430,"##ეპ":2431,"##ორმა":2432,"ისიც":2433,"is":2434,"კუთხ":2435,"გადახდა":2436,"დაამ":2437,"რაი":2438,"ადგი":2439,"მთლიან":2440,"##ლებს":2441,"მიხეილ":2442,"საიდან":2443,"სტუდ":2444,"##ისპირ":2445,"##ut":2446,"##ილების":2447,"პრინცი":2448,"დაგვიკავშირ":2449,"che":2450,"ნა":2451,"მთავარ":2452,"უსაფრთხ":2453,"50":2454,"##გნ":2455,"საფუძ":2456,"საკმაოდ":2457,"##წირ":2458,"წავ":2459,"უპასუხ":2460,"გადახდის":2461,"gadav":2462,"თავიდან":2463,"##ეკური":2464,"გახდა":2465,"ნო":2466,"ცენტრს":2467,"ცდილ":2468,"პარლამენტში":2469,"ხში":2470,"mainteresebs":2471,"23":2472,"ირაკლი":2473,"##ოდან":2474,"##მართველ":2475,"##ვისტ":2476,"13":2477,"კრ":2478,"თანხას":2479,"დამოკიდ":2480,"თეთ":2481,"უწყ":2482,"##ურება":2483,"გადამ":2484,"##ამართ":2485,"##ელა":2486,"მოვლ":2487,"არსებული":2488,"რაოდენ":2489,"სასტ":2490,"##ist":2491,"მაგი":2492,"##აჯ":2493,"უმრავლ":2494,"es":2495,"##ანხმ":2496,"##არში":2497,"##ix":2498,"##10":2499,"აღდგენა":2500,"##ებასთან":2501,"შეცდომ":2502,"##ომბ":2503,"მოი":2504,"დაახლოებით":2505,"##ვან":2506,"##იტეტის":2507,"##ქც":2508,"დააკ":2509,"##აზი":2510,"დაცვის":2511,"პრეზიდენტის":2512,"ნებ":2513,"ქვეყანას":2514,"##ბანკ":2515,"ცნ":2516,"##ცენტ":2517,"შეთანხმ":2518,"აპირ":2519,"დეპუტატ":2520,"##ვოკ":2521,"##წმებთ":2522,"ინიცია":2523,"აგრ":2524,"კონფლი":2525,"##ილებით":2526,"გადაგი":2527,"კერძ":2528,"შეკითხვა":2529,"##ესო":2530,"ხვალ":2531,"##ყალიბ":2532,"##xmar":2533,"ვერც":2534,"მინიმუმ":2535,"უმრავლეს":2536,"##ურადღ":2537,"მგონია":2538,"ეკონომიკური":2539,"საკითხი":2540,"წინასწარ":2541,"##საც":2542,"კონტ":2543,"th":2544,"ორივე":2545,"##უსტი":2546,"პირადი":2547,"სირ":2548,"##ელებს":2549,"##ნე":2550,"##ოდგ":2551,"##უთით":2552,"სიტყვ":2553,"##მოს":2554,"ვუ":2555,"##ოზე":2556,"##ოვან":2557,"ოღონდ":2558,"##di":2559,"განსაკუთრებით":2560,"იტ":2561,"გაიგ":2562,"ბოლომდე":2563,"სქ":2564,"კო":2565,"ჩემპი":2566,"ბანკი":2567,"ვინა":2568,"ზღ":2569,"ჯან":2570,"##ებინა":2571,"პრეს":2572,"ეჭ":2573,"სამხრ":2574,"##რაქ":2575,"გაიმ":2576,"ომის":2577,"##ვებს":2578,"##უმენტ":2579,"მილიონი":2580,"##ობრივი":2581,"ვალ":2582,"ნებართ":2583,"##აძის":2584,"##ოსი":2585,"მუშაობს":2586,"##ინას":2587,"##ადაა":2588,"უზ":2589,"##ეტენ":2590,"##შვილმა":2591,"ბრძან":2592,"იცით":2593,"პრი":2594,"დირ":2595,"##ტში":2596,"სიც":2597,"##ვლას":2598,"16":2599,"##ebit":2600,"ფს":2601,"საერთო":2602,"##ვლება":2603,"გააქტიურ":2604,"##დების":2605,"მოკ":2606,"##ასიათ":2607,"გაგი":2608,"მოსახლე":2609,"##ონში":2610,"##ანტი":2611,"გაგრძელ":2612,"##აწყ":2613,"##ik":2614,"##ma":2615,"დონეზე":2616,"მნიშვნელოვანი":2617,"საზღვ":2618,"##ანილი":2619,"##ძლიერ":2620,"თორემ":2621,"ბიუჯ":2622,"აპარატ":2623,"##ტყობ":2624,"ფინანს":2625,"ხედ":2626,"##ვალა":2627,"მოწოდ":2628,"##ion":2629,"##უშავ":2630,"##ალბ":2631,"სხდომ":2632,"##ადას":2633,"##ილად":2634,"##ნებათ":2635,"##ავკ":2636,"ცუდ":2637,"შედარ":2638,"ვიყ":2639,"##მები":2640,"##ციას":2641,"მოდ":2642,"##eni":2643,"გზავნ":2644,"##ra":2645,"დღეში":2646,"##წორ":2647,"##რუ":2648,"დაინ":2649,"ჰა":2650,"##ძულ":2651,"ინიციატი":2652,"ტურ":2653,"##სი":2654,"##ვარდ":2655,"მისაღ":2656,"ფოტ":2657,"ჩარიცხ":2658,"##ქმის":2659,"ქართველებს":2660,"##ადგილ":2661,"განხორციელ":2662,"ავტომატ":2663,"ათასი":2664,"ramd":2665,"ოფიცი":2666,"იმაზე":2667,"იარაღ":2668,"გქონ":2669,"##ებდი":2670,"კვლავ":2671,"პრინციპ":2672,"##ისში":2673,"ბიძინა":2674,"გზა":2675,"##ადაც":2676,"აირჩიეთ":2677,"ქვეყნ":2678,"##ველის":2679,"tqv":2680,"ag":2681,"ობი":2682,"##ინააღმდეგ":2683,"მიიღო":2684,"ზედ":2685,"##არებს":2686,"199":2687,"ჰეგ":2688,"გამომდინარე":2689,"ზოგადად":2690,"ადგილზე":2691,"სავარაუდ":2692,"##ჩა":2693,"გადაამოწმ":2694,"##ატურ":2695,"კვირიკ":2696,"ფე":2697,"##ებლობას":2698,"ევროპის":2699,"ფაქტი":2700,"აუ":2701,"ვფიქ":2702,"##ab":2703,"##ეთანხმ":2704,"ტელევიზ":2705,"შემდგომ":2706,"მილიონ":2707,"განხილ":2708,"გაბ":2709,"##ზიდ":2710,"##ვეობით":2711,"საუკუნ":2712,"რუსული":2713,"დასრულ":2714,"ჩინ":2715,"სტუდენტ":2716,"მნიშვნელობა":2717,"მტ":2718,"##ricx":2719,"ჰეგემ":2720,"##გვარ":2721,"რუსეთს":2722,"მეორ":2723,"ალექს":2724,"##ორიცხ":2725,"მაგათ":2726,"##ფრის":2727,"##იტეტ":2728,"ინსტიტ":2729,"##ჯობ":2730,"კომპანი":2731,"##og":2732,"ურ":2733,"სამხრეთ":2734,"##ავია":2735,"მეშვეობით":2736,"##რძალ":2737,"სამომ":2738,"##ხსოვს":2739,"ქოც":2740,"and":2741,"##ქვე":2742,"ბარათზე":2743,"ივლის":2744,"მოვი":2745,"მედ":2746,"მითით":2747,"##ნათ":2748,"ლევან":2749,"აქამდე":2750,"ადგილი":2751,"##უა":2752,"##em":2753,"დაკარგ":2754,"ნი":2755,"პატრიოტ":2756,"##არცხ":2757,"აღნიშნა":2758,"კად":2759,"ცოცხ":2760,"##ავის":2761,"შესაბამისი":2762,"წიგ":2763,"##ავიწყ":2764,"სიკ":2765,"##ტორ":2766,"##ეკურიტიზ":2767,"ჭკ":2768,"შტ":2769,"შეუძლია":2770,"გადაგიმო":2771,"განვითარების":2772,"##itx":2773,"სისტემ":2774,"მცირ":2775,"არანაირი":2776,"##ერბ":2777,"##ani":2778,"ცუდი":2779,"##ღერ":2780,"ცნობილი":2781,"ყურადღ":2782,"საბოლო":2783,"ბევრ":2784,"რატო":2785,"საინ":2786,"ბათ":2787,"საიტზე":2788,"აიღ":2789,"##ev":2790,"ga":2791,"მაგრ":2792,"##ზრუნ":2793,"სოციალური":2794,"ცალკ":2795,"##ვრც":2796,"##ჟამ":2797,"პროდუქტ":2798,"gan":2799,"ლიმ":2800,"##ერილი":2801,"##ართა":2802,"დაკავ":2803,"##პირისპირ":2804,"##არიღ":2805,"ამისთვის":2806,"უხ":2807,"გუნდ":2808,"ნეტ":2809,"##ანასკ":2810,"სჭირდება":2811,"##leba":2812,"##ტეს":2813,"##ილზე":2814,"შეგვი":2815,"##ავშირის":2816,"ლიდერ":2817,"ვერაფ":2818,"მსოფლიოს":2819,"ბორ":2820,"პერს":2821,"##ატორ":2822,"გაჩ":2823,"დაფარ":2824,"პასუხს":2825,"უკანასკ":2826,"შედარებით":2827,"##ისტან":2828,"სამშ":2829,"##რიალ":2830,"ისეთ":2831,"თამარ":2832,"მოწყ":2833,"##ითი":2834,"მეზ":2835,"##პატი":2836,"##აო":2837,"##რათ":2838,"##ებოდნენ":2839,"##ვლით":2840,"ვალდ":2841,"ომ":2842,"ტიპის":2843,"##დოდა":2844,"you":2845,"აუცილებელია":2846,"bankshi":2847,"##bt":2848,"გამოძი":2849,"##ასწორ":2850,"წლებში":2851,"მოვა":2852,"განაღ":2853,"კაპ":2854,"კლი":2855,"##ევენ":2856,"##აშია":2857,"გავრცელ":2858,"##leb":2859,"sesxi":2860,"ტერიტორია":2861,"მშენ":2862,"ძალა":2863,"##დევ":2864,"ჯარი":2865,"dav":2866,"ძველი":2867,"##კვირ":2868,"იმედი":2869,"დატ":2870,"კვირიკაშვილმა":2871,"ვეღ":2872,"რუსეთში":2873,"კომუნ":2874,"ამდენი":2875,"##არზე":2876,"პატიმ":2877,"მოვლენ":2878,"##vis":2879,"dg":2880,"ციხეში":2881,"##ოდნენ":2882,"##ამრ":2883,"ხარჯ":2884,"##აბათ":2885,"##ილო":2886,"კანდიდატ":2887,"ზოგადი":2888,"გამოგ":2889,"ინგ":2890,"საჯ":2891,"მუს":2892,"ხშირად":2893,"ბანკით":2894,"თარიღ":2895,"##ყვანა":2896,"გაუქმ":2897,"იწყ":2898,"##უნქ":2899,"გაქვს":2900,"##ram":2901,"##მაღ":2902,"ფიზ":2903,"შეტყობ":2904,"##aket":2905,"ბალ":2906,"ბურ":2907,"დის":2908,"##ოქ":2909,"ადამიანს":2910,"მკვლელ":2911,"მაის":2912,"##ეგი":2913,"დარწმუნ":2914,"##ონზე":2915,"##აშვილს":2916,"ოლი":2917,"სისტემა":2918,"სპორ":2919,"##გვარი":2920,"##ეების":2921,"მახსოვს":2922,"გეგმა":2923,"გაფ":2924,"##ახება":2925,"##ვირთ":2926,"ადამიანების":2927,"პოლიტიკურ":2928,"გაყ":2929,"##აჟ":2930,"მინისტრის":2931,"ჩად":2932,"საპრო":2933,"აქედან":2934,"##იო":2935,"ინფორმაციით":2936,"რეალ":2937,"მანამდე":2938,"ვფიქრობ":2939,"par":2940,"სწორად":2941,"რომლებსაც":2942,"##ვალე":2943,"სივრც":2944,"##ანე":2945,"მხარდა":2946,"##ers":2947,"##ულები":2948,"შეტ":2949,"ბავშ":2950,"##ახა":2951,"ცი":2952,"##დანაშა":2953,"ბრი":2954,"კრიტიკ":2955,"500":2956,"გადამოწმება":2957,"მხრივ":2958,"შედეგად":2959,"##ard":2960,"##პრო":2961,"ჩვეულ":2962,"გაითვალისწინ":2963,"##წონ":2964,"ვც":2965,"აცხადებს":2966,"გრ":2967,"განაცხადი":2968,"მიუთით":2969,"მიმართულ":2970,"მწვრთ":2971,"##პარლამენტ":2972,"ნებართვით":2973,"ვახ":2974,"##უალური":2975,"არჩ":2976,"სპეცი":2977,"aris":2978,"მინისტრი":2979,"გამოდის":2980,"##ash":2981,"მატჩ":2982,"ამათ":2983,"აჭ":2984,"რომელიმე":2985,"21":2986,"მუდ":2987,"ოქტ":2988,"დაცვა":2989,"##ვლად":2990,"გული":2991,"დოკ":2992,"ამჟამ":2993,"კურს":2994,"ნებისმიერი":2995,"##ოლს":2996,"სუ":2997,"ექსპერ":2998,"##ლს":2999,"##აპირ":3000,"##ელების":3001,"უფროს":3002,"##გულ":3003,"ჩემთვის":3004,"ლიბ":3005,"ჩატარ":3006,"ოთხ":3007,"ენერ":3008,"##აციების":3009,"##რას":3010,"##ატის":3011,"დისტან":3012,"დარღ":3013,"მეტად":3014,"მხარდაჭერ":3015,"ჩემპიონ":3016,"მშვიდ":3017,"რელი":3018,"უპასუხა":3019,"რესურს":3020,"##ობდნენ":3021,"##ნია":3022,"##აციაში":3023,"ლარის":3024,"ვეღარ":3025,"აფხაზეთის":3026,"საგარეო":3027,"##ობები":3028,"ენა":3029,"##ქოს":3030,"##ინოს":3031,"აბს":3032,"##ინოთ":3033,"პროცენტი":3034,"იბ":3035,"შევარდ":3036,"ში":3037,"##იკა":3038,"##ვნა":3039,"##მყოფ":3040,"პრეტენ":3041,"ეტყ":3042,"მომავალი":3043,"არგ":3044,"##იკური":3045,"სათ":3046,"##ემდე":3047,"##ვიც":3048,"##ომის":3049,"თითქმის":3050,"##ne":3051,"დასახ":3052,"##იამ":3053,"##რებულ":3054,"შერ":3055,"გადარიცხვა":3056,"ქუთ":3057,"##kv":3058,"ცენტრში":3059,"##უჭ":3060,"##ანაირად":3061,"გადაგიმოწმებთ":3062,"შეგვიძლია":3063,"er":3064,"შებ":3065,"##აჭ":3066,"##ანონ":3067,"##ობლი":3068,"თავზე":3069,"მრავალ":3070,"##ობრივ":3071,"სიამ":3072,"##აან":3073,"##ზღ":3074,"რჩ":3075,"დაჯ":3076,"ქურ":3077,"მხარე":3078,"##ვედი":3079,"განაცხადის":3080,"##iz":3081,"sheg":3082,"ჩას":3083,"შეიც":3084,"პირადად":3085,"ინფ":3086,"##ობი":3087,"კონკრეტული":3088,"შენს":3089,"ომი":3090,"მზ":3091,"##აქმ":3092,"##მოქმედ":3093,"ვაჟ":3094,"ღვ":3095,"ამით":3096,"კავკ":3097,"რომელშიც":3098,"##უთი":3099,"expres":3100,"ხელისუფლებას":3101,"##ხო":3102,"##iax":3103,"##აძეს":3104,"ობიექტ":3105,"ხელფას":3106,"მომავალში":3107,"shes":3108,"xo":3109,"##არჩუნ":3110,"##ამდებ":3111,"აპრ":3112,"მოსახლეობის":3113,"თითო":3114,"##ili":3115,"შევარდნა":3116,"დიპ":3117,"##ადში":3118,"სხვ":3119,"##იდგ":3120,"##ელთა":3121,"პროცენტ":3122,"მთავარია":3123,"გადაც":3124,"##წოდა":3125,"გამარჯვ":3126,"ვინმეს":3127,"ბათუმ":3128,"განა":3129,"წელიწ":3130,"##გო":3131,"ხე":3132,"ასახ":3133,"მიზეზ":3134,"დინ":3135,"ერის":3136,"აც":3137,"ხვ":3138,"კაცო":3139,"##წყვი":3140,"##ხსნა":3141,"ერი":3142,"თურმე":3143,"გენერ":3144,"სავარაუდოდ":3145,"თვეში":3146,"იმავე":3147,"##მული":3148,"##ებინათ":3149,"თითქოს":3150,"ფილიალი":3151,"ეგეთი":3152,"სკოლ":3153,"მიდის":3154,"angarishze":3155,"##ენას":3156,"წლ":3157,"რუსთავ":3158,"გლობ":3159,"##იტყ":3160,"შარ":3161,"დღევანდელი":3162,"გეტყ":3163,"##aa":3164,"მოლაპარაკ":3165,"##ბერში":3166,"დამა":3167,"##ულმა":3168,"მართლაც":3169,"ამასთან":3170,"პოლიტიკა":3171,"მოგვმართ":3172,"ზვი":3173,"კანონმდ":3174,"რეგისტრ":3175,"მოძრაობის":3176,"სიტყვა":3177,"განცხადებით":3178,"##ირიცხ":3179,"ათას":3180,"ამბავი":3181,"ნახვამ":3182,"ერთმანეთს":3183,"##ეთქ":3184,"სახლში":3185,"##ადგურ":3186,"გვერდზე":3187,"კუთხით":3188,"მოსკ":3189,"ტრანს":3190,"ედ":3191,"ამერიკის":3192,"თანამდებ":3193,"##aricx":3194,"მშვენ":3195,"##წერს":3196,"ფარგ":3197,"შეე":3198,"##კვიდ":3199,"დანაშაული":3200,"ტექნიკ":3201,"ცოდ":3202,"ვამბ":3203,"საპარლამენტ":3204,"ოპერაციის":3205,"დისტანცი":3206,"##ალები":3207,"ვიქ":3208,"სრულიად":3209,"##ირების":3210,"დანარჩენი":3211,"diax":3212,"სექს":3213,"მეფ":3214,"იურ":3215,"##ebis":3216,"##ობია":3217,"ღრ":3218,"##org":3219,"სალომ":3220,"##რდილ":3221,"##ალში":3222,"##შიშ":3223,"დირექტ":3224,"უმეტეს":3225,"მოადგილ":3226,"კომპანია":3227,"##თავისუფლ":3228,"საწყ":3229,"##ashi":3230,"არხ":3231,"ეპ":3232,"სრულად":3233,"ხელმძღვანელ":3234,"შევს":3235,"ავტომატურად":3236,"მიზეზი":3237,"ესე":3238,"##მეორ":3239,"ნაცვლად":3240,"##კოს":3241,"##შენ":3242,"შეფას":3243,"##ანო":3244,"pir":3245,"##წარმო":3246,"დასკ":3247,"##ხარ":3248,"##ჰა":3249,"გამოვა":3250,"##ადგენს":3251,"უფლებების":3252,"სააკაშვილის":3253,"##ერპ":3254,"ყველაფერ":3255,"ეკლესი":3256,"sms":3257,"ერთერთ":3258,"##უში":3259,"##აკის":3260,"##ush":3261,"მხარეს":3262,"გავიგე":3263,"##მანი":3264,"##ებულმა":3265,"ნამ":3266,"სიმართლ":3267,"##ზრუნველ":3268,"##შტ":3269,"ინგლის":3270,"მქონ":3271,"მართალია":3272,"მოგი":3273,"პა":3274,"##ილში":3275,"სასამართლოს":3276,"##ურია":3277,"##აციები":3278,"რუსი":3279,"იმისა":3280,"სააკაშვილი":3281,"არაფერს":3282,"მარტი":3283,"##დარი":3284,"##აძემ":3285,"ფიქსირ":3286,"ადმინისტრ":3287,"გადაწყვეტილება":3288,"თავისუფ":3289,"##ow":3290,"##tt":3291,"##ონტ":3292,"მოხდეს":3293,"ალიანს":3294,"გითხ":3295,"გერმან":3296,"ძმა":3297,"სურვილი":3298,"##აიჯ":3299,"საინფორმ":3300,"დევ":3301,"საპარლამენტო":3302,"ექიმ":3303,"მაღალი":3304,"##არეთ":3305,"##ღვა":3306,"მცდელ":3307,"ბრალდ":3308,"##კარად":3309,"##უნა":3310,"უფას":3311,"დარე":3312,"chem":3313,"##ინს":3314,"ბანკიდან":3315,"თავდაც":3316,"ხასიათ":3317,"ჩვენთან":3318,"ერთჯერ":3319,"გარკვეული":3320,"ლიტ":3321,"სერიოზული":3322,"მოგვარ":3323,"##50":3324,"##რძანდით":3325,"##ბა":3326,"dges":3327,"ევროპული":3328,"##ემი":3329,"##ავიდა":3330,"იზ":3331,"ვირ":3332,"სესხზე":3333,"##ტომ":3334,"mi":3335,"ვარი":3336,"მთავრობა":3337,"აგერ":3338,"##გის":3339,"არჩევნები":3340,"საუკეთ":3341,"ნაციონალური":3342,"##ავას":3343,"300":3344,"##იდეს":3345,"აშკარად":3346,"უპირ":3347,"მქონდა":3348,"აქცია":3349,"magram":3350,"##19":3351,"ფსიქ":3352,"მცხოვრ":3353,"იმედია":3354,"აღიარ":3355,"გამართ":3356,"##გნოზ":3357,"სუბ":3358,"დაშ":3359,"##ეებს":3360,"##ზღუდ":3361,"##ახი":3362,"##ans":3363,"##ულების":3364,"იკ":3365,"##დროს":3366,"##ახელ":3367,"ძაან":3368,"ივნის":3369,"##ემბერს":3370,"ცალკე":3371,"კაბ":3372,"შინაგან":3373,"ლოგი":3374,"პარტიის":3375,"##კონ":3376,"##პან":3377,"##ჯი":3378,"##ინდ":3379,"საბჭოთა":3380,"გექ":3381,"##ოო":3382,"eg":3383,"ვთქვათ":3384,"დაგვიკავშირდით":3385,"##ყოლ":3386,"რეზ":3387,"40":3388,"##უკა":3389,"##ილები":3390,"პრემიერმინისტრ":3391,"ნათქვ":3392,"##იდნენ":3393,"კარი":3394,"##ეგმ":3395,"რეალურად":3396,"##ალიტ":3397,"ამჟამად":3398,"საქმიან":3399,"##itan":3400,"##რობის":3401,"ქუთა":3402,"ფან":3403,"##22":3404,"ოლიმ":3405,"რევ":3406,"ფარგლებში":3407,"პატრიოტთა":3408,"##ეჩ":3409,"ოპერაცია":3410,"##ხატ":3411,"პროფესი":3412,"პერიოდში":3413,"ვებ":3414,"ბარათით":3415,"ვამბობ":3416,"შარა":3417,"სიამოვნ":3418,"საინფორმაციო":3419,"უთხ":3420,"##სრულ":3421,"სული":3422,"მძიმე":3423,"22":3424,"##ომპ":3425,"მომხმარებლის":3426,"##ერბაიჯ":3427,"ვიმ":3428,"##ანონმდ":3429,"კონსტიტ":3430,"სფერ":3431,"მინისტრობის":3432,"##აურ":3433,"ვიყავი":3434,"28":3435,"##idi":3436,"ბერ":3437,"##წონს":3438,"კონტრო":3439,"##ხვდა":3440,"ლარს":3441,"##30":3442,"ქალბატ":3443,"ჯერჯერ":3444,"ზემოთ":3445,"საკანონმდ":3446,"ki":3447,"საშუალება":3448,"##ობაც":3449,"##zleb":3450,"##tx":3451,"საკანონმდებლო":3452,"უთ":3453,"უზრუნველ":3454,"საგან":3455,"##გონია":3456,"კომენტ":3457,"##რობს":3458,"არასოდეს":3459,"ჯერჯერობით":3460,"ყოველი":3461,"წერია":3462,"გაუმ":3463,"მთავრობას":3464,"ბო":3465,"ლიდერი":3466,"##შეკ":3467,"kod":3468,"სიცოცხ":3469,"მეცნიერ":3470,"ოპოზიციის":3471,"##როთ":3472,"გვარ":3473,"დაგიკავშირ":3474,"##მეტ":3475,"იპ":3476,"##აროს":3477,"ვიყო":3478,"კიბერ":3479,"##დენად":3480,"სასამართლო":3481,"##ვდომ":3482,"##რაფი":3483,"აგვისტ":3484,"შეიარაღ":3485,"მოა":3486,"გავლ":3487,"##ალო":3488,"##ენტო":3489,"მცირე":3490,"დაუშ":3491,"ძირითადი":3492,"მიმართა":3493,"##ფასი":3494,"ოდენ":3495,"##ედერ":3496,"##bankge":3497,"რელიგი":3498,"##ლიზ":3499,"##ვაში":3500,"ეფ":3501,"##de":3502,"##ებრივ":3503,"განსაზღვ":3504,"##ალმ":3505,"საათამდე":3506,"##ობამ":3507,"გზით":3508,"მივიღ":3509,"##un":3510,"gas":3511,"##მაყოფილ":3512,"მოსკოვ":3513,"ელექტრონ":3514,"ინდი":3515,"მისამართ":3516,"ცხოვრება":3517,"თვითმ":3518,"##ედურ":3519,"პირი":3520,"კომისი":3521,"##ide":3522,"შეურ":3523,"##ენე":3524,"სტუმ":3525,"საქმეს":3526,"##რილი":3527,"##liat":3528,"შეასრულ":3529,"აქტიური":3530,"დარბ":3531,"##ველზე":3532,"პო":3533,"##ჯერა":3534,"აქცი":3535,"##უცია":3536,"მყოფ":3537,"ფიგ":3538,"კარგია":3539,"ქმედ":3540,"##ek":3541,"მოგვმართეთ":3542,"გაზრ":3543,"გამოცდილ":3544,"გადატ":3545,"ფორუმზე":3546,"ბელ":3547,"რთ":3548,"90":3549,"აზერბაიჯ":3550,"pro":3551,"##კურს":3552,"##ვევის":3553,"##ebuli":3554,"##შემ":3555,"##ისის":3556,"წით":3557,"გვინდა":3558,"პირადობის":3559,"მიიჩნ":3560,"საბჭოს":3561,"მარიამ":3562,"##დგა":3563,"##ობიდან":3564,"სამინისტრო":3565,"პოლ":3566,"##წრ":3567,"პირველად":3568,"შეზღუდ":3569,"ეტყობა":3570,"ვხედ":3571,"ამომ":3572,"შევი":3573,"##არისხ":3574,"თაობაზე":3575,"უყურ":3576,"არაფერ":3577,"ვად":3578,"##რობა":3579,"დასაწყ":3580,"ხელში":3581,"ფოტო":3582,"საქმის":3583,"##ოლოგ":3584,"##ედა":3585,"ამბობენ":3586,"##ალიზმი":3587,"წევრი":3588,"პაროლის":3589,"დაღ":3590,"##იტის":3591,"რამდენად":3592,"##ენია":3593,"მოძრაობა":3594,"კიდეც":3595,"დაგეხმაროთ":3596,"ვიდეო":3597,"კახა":3598,"##ttp":3599,"ცენტრის":3600,"გამოიყენ":3601,"შემოგ":3602,"აღება":3603,"##ადმი":3604,"ებრა":3605,"miv":3606,"მიზნით":3607,"##ებელს":3608,"##ეთანხმები":3609,"##არით":3610,"ადამიანები":3611,"ხმ":3612,"ცვლილებ":3613,"##ადია":3614,"##ანდა":3615,"##იანმა":3616,"ღონის":3617,"ციფ":3618,"ესენი":3619,"მედი":3620,"კოდექს":3621,"##ადე":3622,"კიბერდანაშა":3623,"##ისტები":3624,"##ანძ":3625,"##ვატ":3626,"##um":3627,"გაიზ":3628,"ინტერესები":3629,"მონაცემები":3630,"##დივარ":3631,"სპეც":3632,"შეავს":3633,"ღონისძი":3634,"შს":3635,"##ვრის":3636,"მიმდინარეობს":3637,"მახ":3638,"არაერთი":3639,"ვიდე":3640,"##არდი":3641,"ჩამოყალიბ":3642,"##მრთ":3643,"დისტანციურად":3644,"##ცირეს":3645,"##გული":3646,"სიყვარ":3647,"განმარტ":3648,"##qn":3649,"##avs":3650,"##ტიკური":3651,"##ec":3652,"##იკი":3653,"##ri":3654,"ლიბერ":3655,"##ამთ":3656,"მოთ":3657,"ზრ":3658,"##უქი":3659,"რამეს":3660,"##ხელა":3661,"35":3662,"ქუჩაში":3663,"##ებოდეს":3664,"im":3665,"პოზიცია":3666,"ფუნქ":3667,"დაიც":3668,"გამოთ":3669,"დააფ":3670,"საუკეთესო":3671,"განცხადება":3672,"ეკონომიკის":3673,"პოს":3674,"##იური":3675,"ბანკომატიდან":3676,"რევოლ":3677,"##ყვარს":3678,"ფულს":3679,"პოლიტიკის":3680,"გაცილებით":3681,"მოჰ":3682,"წარმოდგ":3683,"##ილით":3684,"მმართველ":3685,"აის":3686,"პოლიტიკოს":3687,"აშენ":3688,"ინდივიდ":3689,"ფინ":3690,"##იანის":3691,"ძეგ":3692,"პოზიცი":3693,"გვარი":3694,"ვითომ":3695,"საფრ":3696,"სამშობლ":3697,"გათვალისწინ":3698,"გმ":3699,"პროცესი":3700,"განვად":3701,"ge":3702,"##უთვნ":3703,"##გზავ":3704,"მომი":3705,"დაე":3706,"ფასი":3707,"ტერიტორიაზე":3708,"##ავდნენ":3709,"ნარ":3710,"ევროკ":3711,"##ევით":3712,"##velo":3713,"##უქრ":3714,"დარწმუნებული":3715,"მოსაზრ":3716,"##ალატ":3717,"ჰეგემონი":3718,"შემოსავალი":3719,"26":3720,"##ნელად":3721,"შვილი":3722,"მიტმას":3723,"##თავრ":3724,"##ენცი":3725,"##რიან":3726,"barati":3727,"უნდათ":3728,"##ეგრ":3729,"სიამოვნებით":3730,"დადას":3731,"ოპოზიცია":3732,"მიღებული":3733,"sak":3734,"##ყოფა":3735,"##შეკრულ":3736,"მტკიც":3737,"##ქვას":3738,"გინდათ":3739,"ყიდ":3740,"სწავლ":3741,"##წვევ":3742,"პორ":3743,"##ადეთ":3744,"სიკვ":3745,"##არხ":3746,"##ali":3747,"##ay":3748,"##აგან":3749,"გადაიხ":3750,"გააჩნია":3751,"ბიძინას":3752,"ანა":3753,"აფხაზეთში":3754,"დაკავშირებული":3755,"##ულში":3756,"გავა":3757,"მერი":3758,"ლამ":3759,"დაუკავშირდით":3760,"თავდაცვის":3761,"ჯობია":3762,"ადამიანებს":3763,"2008":3764,"დადასტურ":3765,"##ებულები":3766,"##კვლ":3767,"მომენტ":3768,"კეთილ":3769,"ყველამ":3770,"თხ":3771,"კაცს":3772,"კლას":3773,"დიპლომ":3774,"უმაღ":3775,"##zav":3776,"ახალგაზრდა":3777,"საათის":3778,"მამაკ":3779,"შედეგი":3780,"სივრცეში":3781,"ინვეს":3782,"ჰოდა":3783,"ყველაფრის":3784,"ფერ":3785,"ბარათს":3786,"საკითხს":3787,"განიხ":3788,"##იას":3789,"ცხინ":3790,"##შტაბ":3791,"ნახვამდის":3792,"ჩრდილ":3793,"ბოდ":3794,"##გია":3795,"##ოტი":3796,"##ინეს":3797,"უამრ":3798,"ექნება":3799,"მირ":3800,"##არმა":3801,"არსენ":3802,"თბილ":3803,"ჰო":3804,"##ედაც":3805,"გადადგ":3806,"##oli":3807,"ფლ":3808,"ისრა":3809,"იყენ":3810,"##ევას":3811,"დაგეხმარებით":3812,"##ებისკენ":3813,"დოლარი":3814,"##st":3815,"ხელშეკრულ":3816,"შევე":3817,"თემაში":3818,"გააკეთა":3819,"sax":3820,"##არტამ":3821,"საფრანგ":3822,"ოცნების":3823,"გურამ":3824,"##არების":3825,"##ce":3826,"##დენს":3827,"ერთობლი":3828,"თვალს":3829,"გეგმ":3830,"##ვლილი":3831,"კონკურ":3832,"##ზარ":3833,"##არტყ":3834,"ოქროს":3835,"გლ":3836,"მწერ":3837,"##იერი":3838,"თავიან":3839,"აძლ":3840,"ველი":3841,"პარტია":3842,"##ატრი":3843,"##ida":3844,"კავშირ":3845,"ლე":3846,"ნაკლებ":3847,"შანსი":3848,"2012":3849,"##ზია":3850,"მესმის":3851,"ცხელ":3852,"სოცი":3853,"დაბლოკ":3854,"მისაღებად":3855,"aq":3856,"##პოვ":3857,"ბატონ":3858,"იუსტი":3859,"მოიგ":3860,"##ებამდე":3861,"მხარს":3862,"400":3863,"მიღება":3864,"##ევდა":3865,"ცვლილება":3866,"##იფიქ":3867,"დეპარტამ":3868,"##წე":3869,"მექ":3870,"##ებოდი":3871,"##დებარე":3872,"მაქ":3873,"lar":3874,"##პორტ":3875,"##ებისგან":3876,"didi":3877,"ბრძოლა":3878,"გაიც":3879,"თამაში":3880,"რეგიონული":3881,"##ობისთვის":3882,"##ეცხ":3883,"თანაც":3884,"გირ":3885,"##ენთ":3886,"op":3887,"სათა":3888,"##adi":3889,"##ოვნება":3890,"##ზაციის":3891,"მანძ":3892,"##იქმ":3893,"rat":3894,"##ირებას":3895,"დღემდე":3896,"ნაგ":3897,"ამონა":3898,"##რეზიდ":3899,"მოიპ":3900,"##ana":3901,"mov":3902,"##ელო":3903,"მშვიდობ":3904,"აწყ":3905,"ფედერ":3906,"სარ":3907,"გადაწყვეტილ":3908,"ოთ":3909,"შეხედ":3910,"დად":3911,"sam":3912,"ქვეშ":3913,"##ასტ":3914,"##აშე":3915,"ax":3916,"კანონის":3917,"განუ":3918,"მიგ":3919,"დახმარება":3920,"ბად":3921,"რაა":3922,"ამისა":3923,"სუფ":3924,"##იმალური":3925,"სხვის":3926,"ხორ":3927,"გააგრძელ":3928,"ავტორი":3929,"ელექტრონული":3930,"რეჟიმში":3931,"იუსტიციის":3932,"მოიც":3933,"ქს":3934,"##ორიტ":3935,"სასურ":3936,"დამტკიც":3937,"რიგში":3938,"##ყნ":3939,"##ვაზე":3940,"მივა":3941,"დროის":3942,"##ურული":3943,"ძალად":3944,"##ინგი":3945,"გაქ":3946,"##idzleba":3947,"შეეს":3948,"ვინაიდან":3949,"##შა":3950,"##ვიდე":3951,"##აფხ":3952,"ჭირ":3953,"სამომხმარ":3954,"ოჯახის":3955,"##ებულად":3956,"საფრთხე":3957,"თუკი":3958,"ნატოს":3959,"##იშვილის":3960,"სასტუმ":3961,"ევროპაში":3962,"რიცხ":3963,"##ანდი":3964,"##ებდით":3965,"##ობილი":3966,"წულ":3967,"შემცირ":3968,"დაწეს":3969,"##მდე":3970,"გარემოს":3971,"ჩართული":3972,"კლუბ":3973,"რაღა":3974,"უძ":3975,"##uri":3976,"პოლიციის":3977,"ბრძანდებით":3978,"##dis":3979,"დაიბ":3980,"საშუალებით":3981,"##ილოც":3982,"ხელფასი":3983,"თქვენის":3984,"დასჭირდება":3985,"nomeri":3986,"კრიმინ":3987,"ფიქსირდება":3988,"მოდის":3989,"##ფიკ":3990,"##ოვი":3991,"ხს":3992,"ჩათ":3993,"ისევე":3994,"saq":3995,"##აზა":3996,"ბაღ":3997,"წინადად":3998,"სურათი":3999,"ძვირ":4000,"მაგრად":4001,"მოითხოვ":4002,"2015":4003,"##ron":4004,"##ებოდით":4005,"##ატორი":4006,"ისტორიული":4007,"##ნილ":4008,"კულტურული":4009,"განათლების":4010,"დაპირისპირ":4011,"დამნ":4012,"##ლუ":4013,"##ენცია":4014,"თავმჯდომარე":4015,"რისი":4016,"მიბ":4017,"აპირებს":4018,"გამორიცხ":4019,"დაიკ":4020,"ძლიერი":4021,"##ულზე":4022,"დაემ":4023,"##ობაილ":4024,"პოლიცი":4025,"ელი":4026,"##ჩნდება":4027,"თეთრი":4028,"გაყალბ":4029,"##აკვირ":4030,"us":4031,"##vili":4032,"##ოვანია":4033,"##ebia":4034,"მთელ":4035,"წულუკ":4036,"##ებულა":4037,"##ობისა":4038,"##ვება":4039,"it":4040,"ალტერ":4041,"##გონ":4042,"უარყოფ":4043,"##რიბ":4044,"ჯგუფის":4045,"მაქსიმუმ":4046,"##ud":4047,"##ისტი":4048,"ჩართ":4049,"მერაბ":4050,"ტენ":4051,"ბრძანეთ":4052,"დამი":4053,"ხანია":4054,"ისედაც":4055,"მდიდ":4056,"სასარგებლ":4057,"ინტერნეტბანკ":4058,"##ერია":4059,"სინამდვილ":4060,"##ინძ":4061,"##უდგ":4062,"მიკ":4063,"თავისუფლების":4064,"ბრალ":4065,"სწორი":4066,"##ედრო":4067,"##ვართ":4068,"03":4069,"cham":4070,"##არბ":4071,"წესი":4072,"უსაფრთხოების":4073,"##ლებას":4074,"http":4075,"ნერ":4076,"მოუწოდა":4077,"##ელზე":4078,"არასდროს":4079,"პრეზიდენტმა":4080,"##ქმედო":4081,"გამსახურ":4082,"გემ":4083,"##ომა":4084,"ვაპირ":4085,"ჯარის":4086,"კომპრ":4087,"სალომე":4088,"##ალოგი":4089,"##ინკ":4090,"##რისტი":4091,"##artvelo":4092,"##ანაც":4093,"##ეტში":4094,"სამომხმარებლო":4095,"ფაქტია":4096,"თანახ":4097,"სიტუაცია":4098,"კონკრეტულად":4099,"##გებ":4100,"ნაბიჯები":4101,"წელიწადში":4102,"იფიქ":4103,"##ავშირი":4104,"##ინჯ":4105,"##ებლები":4106,"შრომ":4107,"##ქვა":4108,"##აკვეთ":4109,"როგორი":4110,"##თვი":4111,"bankis":4112,"as":4113,"##ახავს":4114,"##უნი":4115,"თანამშრომლ":4116,"კაპიტ":4117,"##ლოდ":4118,"აღს":4119,"მობაილ":4120,"##რაქტიკ":4121,"იუ":4122,"გნებ":4123,"exla":4124,"წინაშე":4125,"სამოქალაქ":4126,"მართალი":4127,"ხმას":4128,"##მრთელ":4129,"თორე":4130,"##op":4131,"##ation":4132,"კატეგ":4133,"ცხოვრების":4134,"დაან":4135,"##ერში":4136,"იმყოფ":4137,"მოდი":4138,"ვინმემ":4139,"ხარისხ":4140,"მოსკოვში":4141,"ქართველები":4142,"sesxis":4143,"სასწ":4144,"##ige":4145,"აღმოჩნდა":4146,"ალექსანდ":4147,"სამოქმედო":4148,"ისტორია":4149,"კაბინ":4150,"##ვეწ":4151,"სატრ":4152,"სავალ":4153,"##ერა":4154,"##ნატი":4155,"პარტნი":4156,"ამიტომაც":4157,"##ობილ":4158,"sheidzleba":4159,"სისულ":4160,"##უქმ":4161,"აღი":4162,"##eblo":4163,"დგას":4164,"ტრად":4165,"გვერდით":4166,"მოთხოვნა":4167,"##ეთთან":4168,"პრაქტიკ":4169,"სამოქალაქო":4170,"##იდე":4171,"წლების":4172,"სეზ":4173,"საფას":4174,"##ესია":4175,"შექმნილი":4176,"სახე":4177,"##ველს":4178,"ბენ":4179,"ბან":4180,"ფულის":4181,"##ეტო":4182,"საშინ":4183,"ცივილი":4184,"##ფოთ":4185,"##ორები":4186,"vs":4187,"ტრა":4188,"აღნიშნულ":4189,"უკანონო":4190,"ამავე":4191,"##უსს":4192,"სურათ":4193,"##12":4194,"გათავისუფლ":4195,"##იშნა":4196,"აკეთებს":4197,"შევძლ":4198,"მოცემ":4199,"გამოუ":4200,"ყოფილიყო":4201,"ახლოს":4202,"მთლიანად":4203,"27":4204,"ასეა":4205,"##აბათს":4206,"##უმის":4207,"იანვარ":4208,"ოცნება":4209,"შეუძლ":4210,"კონფლიქ":4211,"##ალების":4212,"##ადასტურ":4213,"გქონდათ":4214,"244":4215,"პარალ":4216,"##დნ":4217,"საინტერესოა":4218,"საიტიდან":4219,"ოლიმპი":4220,"დამსახურ":4221,"##xs":4222,"საღამოს":4223,"##დამ":4224,"ამონაწერ":4225,"მიხ":4226,"##ველია":4227,"მიმართულებით":4228,"ორგან":4229,"ეშ":4230,"ყოფილ":4231,"##მარი":4232,"გუნდის":4233,"##az":4234,"##ლინ":4235,"საზოგადოება":4236,"ერთჯერადი":4237,"ბა":4238,"##zavn":4239,"##ჩერ":4240,"სააგ":4241,"##ირკ":4242,"მლ":4243,"საჯარო":4244,"dame":4245,"ალიანსის":4246,"##უდან":4247,"იმათ":4248,"ვიცით":4249,"ინტერვი":4250,"სოფლის":4251,"მობილურ":4252,"თავისუფალი":4253,"pr":4254,"გექნებათ":4255,"xom":4256,"დოკუმენტ":4257,"გმადლობ":4258,"uk":4259,"უარი":4260,"წლიდან":4261,"ვნახე":4262,"მანძილზე":4263,"##ich":4264,"იციან":4265,"ადვოკ":4266,"##vad":4267,"შეესაბამ":4268,"##არჯვენ":4269,"გრძნ":4270,"##and":4271,"##ვალიან":4272,"მოდერ":4273,"უმოქმედ":4274,"##ამაინც":4275,"##ტრუქტურ":4276,"##ტკი":4277,"##ირა":4278,"##ალოდ":4279,"გიფ":4280,"დამნაშა":4281,"##ელებმა":4282,"##უპირ":4283,"ვიხ":4284,"shegidz":4285,"შუაშია":4286,"##ვრად":4287,"მინდ":4288,"ჩაგ":4289,"თეორი":4290,"##ყოფილი":4291,"მიხვ":4292,"##ებითი":4293,"მაგაზე":4294,"##ცხადა":4295,"მიზანი":4296,"##ავლა":4297,"დროზე":4298,"სტრატ":4299,"ტერმინ":4300,"##ოვნო":4301,"იქნა":4302,"საჩ":4303,"##ედიც":4304,"ვს":4305,"გულისხმობთ":4306,"ინფრ":4307,"sx":4308,"ყურ":4309,"ნაშ":4310,"##ოები":4311,"მხარდ":4312,"სტრ":4313,"წარდგ":4314,"ესაა":4315,"##ულობ":4316,"##რებში":4317,"ბრძოლ":4318,"##ცემს":4319,"მომსახურების":4320,"ინსტიტუტ":4321,"##მეორედ":4322,"##ყვა":4323,"სს":4324,"ჩამოს":4325,"იუზ":4326,"ფართ":4327,"mo":4328,"წესით":4329,"sad":4330,"ხელმეორედ":4331,"კონსულტაციის":4332,"გაყიდ":4333,"##ფრინ":4334,"shevd":4335,"უკეთესი":4336,"წერს":4337,"იღებს":4338,"იურიდი":4339,"სახის":4340,"თვალი":4341,"იტალი":4342,"##ლოს":4343,"##ალისტი":4344,"##me":4345,"მომხრე":4346,"##შიშრო":4347,"გნებავთ":4348,"რეფორმ":4349,"##იკის":4350,"ოკუპირ":4351,"რეაგ":4352,"ბურჯ":4353,"ვიტყ":4354,"ალტერნატი":4355,"##მომ":4356,"მკითხ":4357,"რამოდენ":4358,"კულტურის":4359,"არსებულ":4360,"ინფრას":4361,"##თხო":4362,"ძირითადად":4363,"##ანზე":4364,"კაკ":4365,"##ობელი":4366,"კოდს":4367,"##ოლოგიური":4368,"ეგენი":4369,"იწყება":4370,"სამსახურის":4371,"სე":4372,"მანქანა":4373,"გაითიშ":4374,"##ქვამს":4375,"##ინეთ":4376,"##გება":4377,"##ოლუტ":4378,"საბოლოოდ":4379,"tqven":4380,"კონფლიქტ":4381,"##ოვთ":4382,"თბილისი":4383,"შალ":4384,"შექმნა":4385,"გორ":4386,"ვალუტ":4387,"##ამია":4388,"##ჟი":4389,"ვე":4390,"ღილ":4391,"დემოკრატ":4392,"რუსთავი":4393,"კონფიდ":4394,"##დრო":4395,"კერძო":4396,"ვგ":4397,"ღმერთმა":4398,"##ებისას":4399,"##ურმა":4400,"შეკრ":4401,"საათზე":4402,"მფ":4403,"##vel":4404,"##წერია":4405,"ინფრასტრუქტურ":4406,"##ვერენ":4407,"კოდის":4408,"ტაქ":4409,"სახალ":4410,"ხელისუფლებაში":4411,"პროვოკ":4412,"დარჩა":4413,"ზვიად":4414,"ფეის":4415,"##ადეს":4416,"##თო":4417,"##არმ":4418,"##თავრობ":4419,"მოადგილე":4420,"ნათია":4421,"ტელეფონ":4422,"გლობალური":4423,"gadax":4424,"##ოება":4425,"##უბრუნ":4426,"##ამც":4427,"##რობთ":4428,"##ტები":4429,"შეესაბამება":4430,"აბსოლუტ":4431,"##კარგ":4432,"##ატა":4433,"გაერ":4434,"მონაცემების":4435,"მანქან":4436,"ავტომ":4437,"ibankge":4438,"ვხედავ":4439,"##წვია":4440,"უახლო":4441,"ობ":4442,"ახალგაზრდ":4443,"პროგნოზ":4444,"იძახ":4445,"##spres":4446,"აგვისტოს":4447,"##დენტი":4448,"##ანმა":4449,"##ოდით":4450,"ლექს":4451,"გამოგი":4452,"პოტ":4453,"თემის":4454,"##ალებს":4455,"##ტიმ":4456,"მუდმი":4457,"განწყ":4458,"ახს":4459,"ხნის":4460,"ნე":4461,"##ენილ":4462,"რამოდენიმე":4463,"სისულელ":4464,"##პორტის":4465,"##შვილს":4466,"ეგაა":4467,"ეჭვი":4468,"##არდება":4469,"ლაპარაკი":4470,"სუვერენ":4471,"კანდიდატმა":4472,"გუნდი":4473,"დიპლომატი":4474,"chemi":4475,"საწ":4476,"##ობრივად":4477,"გამოვი":4478,"პროკურატურ":4479,"ცეცხ":4480,"60":4481,"ავიღ":4482,"კილ":4483,"უცნობ":4484,"მოპოვ":4485,"გიფიქსირ":4486,"აქტიურად":4487,"##ღვევ":4488,"chav":4489,"ramden":4490,"##ასაც":4491,"გარკვეულ":4492,"ნომრის":4493,"ეხება":4494,"##უმი":4495,"ბოკ":4496,"ბავშვი":4497,"შემადგენ":4498,"გარეთ":4499,"ცოცხალი":4500,"ნდ":4501,"მოგვწერე":4502,"დავალიან":4503,"მოხს":4504,"შტატ":4505,"ბაბ":4506,"გვყავს":4507,"მოსამართლ":4508,"სადმე":4509,"##ხან":4510,"##aze":4511,"##ედროვე":4512,"2009":4513,"damexmar":4514,"##ეთიდან":4515,"შეტყობინება":4516,"კა":4517,"##ედიცინო":4518,"შეხვედრაზე":4519,"##ცაა":4520,"დაინტერეს":4521,"მიიღებთ":4522,"##ავინ":4523,"##ართება":4524,"საყრ":4525,"express":4526,"##ჭირეთ":4527,"კონსულტაციით":4528,"სატრანს":4529,"ტვ":4530,"madlobt":4531,"##red":4532,"paroli":4533,"ევროს":4534,"წარმატებულ":4535,"პოპ":4536,"მეტს":4537,"მიტინგ":4538,"თამაშის":4539,"ქრისტი":4540,"##კას":4541,"##cent":4542,"ტექს":4543,"##რძოლ":4544,"კავკასი":4545,"იმისათვის":4546,"##ადოთ":4547,"ოლ":4548,"კანდიდატი":4549,"ძველ":4550,"ap":4551,"##ებისათვის":4552,"##გვლი":4553,"გვიან":4554,"წელია":4555,"##ერები":4556,"##ანიას":4557,"##თხოვს":4558,"ბატონი":4559,"შეიქმ":4560,"წევრ":4561,"დამც":4562,"##ოცი":4563,"ბოდიშ":4564,"უმოქმედობის":4565,"##ახვა":4566,"ლიტერ":4567,"##ფასო":4568,"ასრულ":4569,"ნაცების":4570,"გახდება":4571,"ეწ":4572,"გონ":4573,"maq":4574,"##ბის":4575,"xel":4576,"გაითვალისწინოთ":4577,"მოგაწ":4578,"დადებით":4579,"##ადრ":4580,"##უქრებიან":4581,"მისცეს":4582,"პროგრამის":4583,"##ცეთ":4584,"ნიკა":4585,"##ელად":4586,"mer":4587,"##კეტ":4588,"ჩრდილო":4589,"ალას":4590,"##line":4591,"##ებერ":4592,"ნაკლები":4593,"##ავებს":4594,"ეც":4595,"##ატრ":4596,"ვერაფერს":4597,"ხუთ":4598,"მემკვიდ":4599,"მიმართოთ":4600,"თავისუფლება":4601,"შიდა":4602,"ვალდებულ":4603,"იქიდან":4604,"##გზავნ":4605,"მაღალ":4606,"ურთიერთობის":4607,"რეიტ":4608,"##მარისი":4609,"##ძინა":4610,"თემას":4611,"პირობებში":4612,"უამრავი":4613,"ხელმძღვანელი":4614,"##ჩვენებს":4615,"ატარებს":4616,"ნაკრების":4617,"საც":4618,"##ტონ":4619,"##ერიცხ":4620,"##ძებ":4621,"tel":4622,"##rong":4623,"გამოხატ":4624,"დატოვ":4625,"სამედიცინო":4626,"80":4627,"##მადიდ":4628,"##ისტული":4629,"##ხვერპ":4630,"ნაწილს":4631,"კვიც":4632,"ac":4633,"დაგავიწყ":4634,"დაფინანს":4635,"##ედი":4636,"ერთობლივი":4637,"##თის":4638,"შექმნის":4639,"ცნობით":4640,"##ტყუ":4641,"მაშ":4642,"დანიშნ":4643,"##ისაგან":4644,"მასე":4645,"დაფიქსირებული":4646,"თანამედროვე":4647,"ეგეც":4648,"##იამოვნო":4649,"ჯამ":4650,"##ven":4651,"##ვლელი":4652,"targetblanka":4653,"ამაში":4654,"ქალაქის":4655,"გამოტ":4656,"შებრძანდით":4657,"##ვეული":4658,"ადგილობრივი":4659,"##იკო":4660,"ნავთ":4661,"##ფერხ":4662,"გასული":4663,"##დგათ":4664,"ეროვნულ":4665,"##უქტურ":4666,"##ყავთ":4667,"მაკროს":4668,"დაბად":4669,"ad":4670,"ზემო":4671,"მსოფლიოში":4672,"##აშენ":4673,"ნაცები":4674,"მაკროსეკურიტიზ":4675,"მომავლის":4676,"თარგ":4677,"დაუკავშირდეთ":4678,"##ისტების":4679,"##ონათ":4680,"მიდი":4681,"##ჭირდებათ":4682,"##დამაინც":4683,"შსს":4684,"##isi":4685,"მწ":4686,"##იზღ":4687,"განყოფილ":4688,"რადი":4689,"##ოდე":4690,"ტოტ":4691,"შედეგები":4692,"საფუძველზე":4693,"მისივე":4694,"##ux":4695,"##ანამ":4696,"##უი":4697,"2006":4698,"უმცირეს":4699,"მინისტრებს":4700,"ბურჯანა":4701,"shegidzliat":4702,"##ემბერში":4703,"##ორიაში":4704,"პენს":4705,"შეთავაზ":4706,"იმისთვის":4707,"##თავს":4708,"სასტუმრო":4709,"გაკეთება":4710,"##ვაც":4711,"##იკას":4712,"##სახური":4713,"##იაა":4714,"##რძანდეთ":4715,"უკრაინ":4716,"მტრ":4717,"##ლექს":4718,"პროცესში":4719,"##ველთა":4720,"მამა":4721,"მოც":4722,"წარს":4723,"mitx":4724,"ალავი":4725,"##უმეტეს":4726,"გამოცხად":4727,"##ხა":4728,"##აგი":4729,"ხარვე":4730,"##ვიანებით":4731,"##იკითხე":4732,"სახალხო":4733,"მაინცდამაინც":4734,"ram":4735,"ჩვენთვის":4736,"ramdeni":4737,"ბაქ":4738,"ნაღ":4739,"ინტერპრ":4740,"##იტანა":4741,"ფონ":4742,"განახლ":4743,"მნიშვნელოვანია":4744,"ნეტა":4745,"##უციის":4746,"ისაა":4747,"ჯანმრთელ":4748,"gasag":4749,"დონის":4750,"##დია":4751,"უნდოდა":4752,"არასწ":4753,"ვთქვა":4754,"##აკში":4755,"ლაშა":4756,"გაცემ":4757,"გაე":4758,"ბევრს":4759,"ნორმალური":4760,"ივლისს":4761,"გრე":4762,"მასშტაბ":4763,"მოე":4764,"წყალ":4765,"მხარდამ":4766,"ნიშ":4767,"სისტემის":4768,"ოფიციალური":4769,"ჩხ":4770,"##იღო":4771,"##ადგინოთ":4772,"ანგარიშიდან":4773,"სტი":4774,"ველოდ":4775,"რუსუდან":4776,"##ტიკის":4777,"მოიქ":4778,"ავს":4779,"##იდის":4780,"გადავი":4781,"##ულარული":4782,"პროექტი":4783,"იმდენი":4784,"##ონტრო":4785,"შეფერხ":4786,"პოლიტიკაში":4787,"კერძოდ":4788,"##ასკ":4789,"saqartvelo":4790,"ტრადიცი":4791,"მეთქი":4792,"გაითიშოს":4793,"##ეცით":4794,"##იმეორ":4795,"##თავრობო":4796,"არასამ":4797,"ცხადია":4798,"ბევრად":4799,"შეურაცხ":4800,"##პს":4801,"##ანაშა":4802,"ინაშვილის":4803,"##15":4804,"ცნობილია":4805,"იმდენად":4806,"წლამდე":4807,"აღმოს":4808,"გაერთიანება":4809,"რეალური":4810,"დავწერე":4811,"რუსები":4812,"უდიდ":4813,"პოლიტ":4814,"##ენით":4815,"მდგომარეობა":4816,"##ავათ":4817,"ფიქრობ":4818,"გახსნა":4819,"ბრიტან":4820,"იმაში":4821,"##ჩქ":4822,"როგორიც":4823,"წავიდა":4824,"##ერტ":4825,"რუსთა":4826,"შთ":4827,"შიგ":4828,"გარდაც":4829,"რი":4830,"70":4831,"დანაშაულ":4832,"წმინ":4833,"მისთვის":4834,"ჩატ":4835,"ჩაი":4836,"სამართალდ":4837,"gavaket":4838,"კომისიის":4839,"##ზა":4840,"##ესტერ":4841,"კვირის":4842,"დაუმ":4843,"არცერთ":4844,"ეზ":4845,"##sh":4846,"##ეთო":4847,"დააფიქსირ":4848,"##idzlia":4849,"საკმარისი":4850,"##ინმა":4851,"ერთიან":4852,"გილოც":4853,"მემკვიდრე":4854,"kodi":4855,"მეტყ":4856,"მიაღ":4857,"##ადს":4858,"##ლილი":4859,"თანახმად":4860,"მხატ":4861,"მითითებული":4862,"ხაზს":4863,"გადავდგათ":4864,"საგანგ":4865,"განაგრძ":4866,"მლნ":4867,"რჩება":4868,"მიმღ":4869,"წლი":4870,"##ყავ":4871,"ვუყურ":4872,"##ობებს":4873,"##ინახ":4874,"##იაზე":4875,"შემომ":4876,"##წყვეტი":4877,"აპლიკ":4878,"##დიან":4879,"##ესის":4880,"##wor":4881,"შევსება":4882,"კვიციანმა":4883,"met":4884,"განათლ":4885,"მცდელობა":4886,"ვქ":4887,"აგებთ":4888,"ქულა":4889,"##ყვნენ":4890,"დისკ":4891,"წარმოადგენს":4892,"გრძელ":4893,"გაღ":4894,"წყარო":4895,"დაავად":4896,"აერო":4897,"##ასის":4898,"სტრუქტურ":4899,"ალექსანდრე":4900,"სტალი":4901,"პერსონ":4902,"ეკლეს":4903,"##რისას":4904,"შენც":4905,"თებერ":4906,"ანაბრის":4907,"##ვებით":4908,"პოსტი":4909,"შენარჩუნ":4910,"სასიამოვნო":4911,"გრაფ":4912,"მემუქრებიან":4913,"მომზად":4914,"მოხვ":4915,"დააბ":4916,"რაოდენობა":4917,"##ub":4918,"პროგრამა":4919,"პრობლემები":4920,"##ვიანი":4921,"##ep":4922,"##ნებით":4923,"რუსულ":4924,"იდი":4925,"მიმართებაში":4926,"##ულობა":4927,"##შფოთ":4928,"დემოკრატიული":4929,"##rd":4930,"oper":4931,"ინტერპრეს":4932,"##onda":4933,"ნან":4934,"2010":4935,"##ხილ":4936,"არჩევნებში":4937,"დახურ":4938,"ხელისუფლებამ":4939,"##ანდაც":4940,"რუსეთთან":4941,"##ოი":4942,"baratze":4943,"გამოკითხ":4944,"დაგეგმ":4945,"კეთილი":4946,"სამყარ":4947,"##ემბრ":4948,"მქონე":4949,"##აცრ":4950,"დასაწყისში":4951,"##უნდა":4952,"საკითხზე":4953,"პარტიას":4954,"გამსახურდი":4955,"მოვიდა":4956,"##ქმა":4957,"##ძიმ":4958,"თეა":4959,"##ვიდეს":4960,"##კაცი":4961,"##vit":4962,"##ტესტ":4963,"##ჭრა":4964,"აკად":4965,"გასა":4966,"სხვას":4967,"##ვევით":4968,"მუნ":4969,"##არები":4970,"შეძ":4971,"ღირებულება":4972,"ტერიტორიული":4973,"ადვილი":4974,"დააჭირეთ":4975,"##ულება":4976,"ვენ":4977,"ბანკს":4978,"ქურდ":4979,"ყოველთვი":4980,"შესრულებული":4981,"##ობასთან":4982,"გადარიცხვის":4983,"##ორებს":4984,"გზავნილი":4985,"##გას":4986,"წავა":4987,"ყოველდღ":4988,"ულ":4989,"ძალის":4990,"iqn":4991,"ნომერში":4992,"con":4993,"ევროპა":4994,"##ულობს":4995,"მაგათი":4996,"საზოგადოებრივი":4997,"გიხ":4998,"##ატს":4999,"var":5000,"ყველგან":5001,"##oc":5002,"დამნაშავე":5003,"gasagebia":5004,"აუცილებელი":5005,"gadaricx":5006,"ცდილობს":5007,"##orgia":5008,"მომწერეთ":5009,"მასწავლ":5010,"დაძ":5011,"##ფორ":5012,"სუბი":5013,"ფორმატ":5014,"##ყვანეს":5015,"##ფი":5016,"##არიზ":5017,"პირის":5018,"##კიდ":5019,"დაწერ":5020,"აღმოსავლ":5021,"მარგ":5022,"##ზუსტ":5023,"ბოდი":5024,"##ოგრაფი":5025,"ვაკ":5026,"##აბუთ":5027,"კავშირის":5028,"##redit":5029,"card":5030,"##რივი":5031,"ღირებულ":5032,"ვიყოთ":5033,"უკრაინა":5034,"ჩემო":5035,"სიგ":5036,"ნივ":5037,"მომსახურება":5038,"დამეხმარ":5039,"პერ":5040,"##ici":5041,"გია":5042,"გადაცემ":5043,"დანარჩენ":5044,"სხვების":5045,"##ქვია":5046,"##აკლის":5047,"##ოსტა":5048,"##სამ":5049,"##ovs":5050,"##ერების":5051,"თავში":5052,"იზრ":5053,"დატო":5054,"გაუკ":5055,"ყველაფერზე":5056,"##ტიკა":5057,"##ant":5058,"კონც":5059,"ავად":5060,"ინტერპრესნი":5061,"დოზ":5062,"ოქტომბ":5063,"გულისხმობს":5064,"##ირის":5065,"პრეტენზია":5066,"##უსში":5067,"ოქტომ":5068,"ჯანდაც":5069,"გაუშ":5070,"მიიღებს":5071,"შავი":5072,"##lis":5073,"მითუმეტეს":5074,"##ვავ":5075,"##ძიებო":5076,"მიმართეთ":5077,"სერიოზულად":5078,"ფიგურული":5079,"შევა":5080,"მუშაობა":5081,"##ონავ":5082,"ღამ":5083,"ივანიშვილის":5084,"##ინებს":5085,"##ნებს":5086,"მოახერხ":5087,"ბექ":5088,"ტიპი":5089,"##ერმა":5090,"##ვო":5091,"კავშირი":5092,"მძღ":5093,"შეერთ":5094,"ფიზიკური":5095,"აქციის":5096,"საყვარ":5097,"##ვერდ":5098,"ტან":5099,"##oo":5100,"გარდაუ":5101,"ჭეშ":5102,"ჰყავს":5103,"##აბა":5104,"პასუხისმგებლობა":5105,"მოგვიანებით":5106,"shemidzlia":5107,"##nt":5108,"რომელთა":5109,"ფილიალიდან":5110,"საგამო":5111,"მორი":5112,"სურს":5113,"ხალხმა":5114,"##იკოს":5115,"ოთხი":5116,"##იტორ":5117,"ფრანგ":5118,"გამოჩ":5119,"ნაკლებად":5120,"ნას":5121,"გალ":5122,"კოკ":5123,"მდი":5124,"მაჩვენ":5125,"ვაპირებ":5126,"ფორმა":5127,"##თანა":5128,"##ასტურ":5129,"არავით":5130,"ევროკავშირის":5131,"სავს":5132,"ყურადღება":5133,"მოქალაქეებს":5134,"მიუღ":5135,"რკ":5136,"##წვევს":5137,"##ust":5138,"საქმეში":5139,"ჭეშმარი":5140,"დედაქალაქ":5141,"სასარგებლოდ":5142,"##პოლი":5143,"გაიცემა":5144,"მიწის":5145,"საბოლოო":5146,"##ღან":5147,"##ian":5148,"რეგიონში":5149,"ინტერპრეტ":5150,"აკრძალ":5151,"მაია":5152,"mob":5153,"შესთავაზ":5154,"ლოგიკ":5155,"დაზიან":5156,"იძულ":5157,"##ებიათ":5158,"##ციული":5159,"აფრი":5160,"##ნაირი":5161,"##avshi":5162,"წაგ":5163,"ბეს":5164,"##aci":5165,"დედის":5166,"##წლიანი":5167,"ფილიალს":5168,"##ალე":5169,"ანაბარი":5170,"მღ":5171,"კურ":5172,"##our":5173,"გერმანი":5174,"მეურნ":5175,"##დად":5176,"##პორტი":5177,"150":5178,"რუსებს":5179,"##ვედრია":5180,"სამუშაოების":5181,"პროექტის":5182,"გიფიქსირდებათ":5183,"##11":5184,"მდებარე":5185,"ელემ":5186,"პრეტენზი":5187,"##ivar":5188,"ნახევარი":5189,"ცენტრი":5190,"უკრაინის":5191,"ამბობ":5192,"al":5193,"##ort":5194,"უთხრა":5195,"ილია":5196,"##ფიც":5197,"##elia":5198,"საზოგადოებას":5199,"##ემატ":5200,"გადარჩ":5201,"ვერს":5202,"##ირებულ":5203,"მოწინააღმდეგ":5204,"ორგანიზაციის":5205,"##ოდოთ":5206,"აისახება":5207,"წევრები":5208,"რათ":5209,"რწმ":5210,"ამონაწერში":5211,"##ეთვე":5212,"მუშ":5213,"უწყების":5214,"##შვიდ":5215,"be":5216,"საპრეზიდ":5217,"უშუალ":5218,"ბოდიშს":5219,"avi":5220,"სტრატეგი":5221,"მხარდაჭერა":5222,"სიმბ":5223,"კომიტეტის":5224,"წარმომადგენლები":5225,"პინ":5226,"გამოვიდა":5227,"ჯიბ":5228,"ძაღ":5229,"or":5230,"გარდაუვალი":5231,"პაკ":5232,"გაიხ":5233,"ანალოგი":5234,"სხვათა":5235,"მეთოდ":5236,"მწვანე":5237,"რელიგიური":5238,"მეგრ":5239,"მოღვა":5240,"მფლობ":5241,"იჯ":5242,"##ოსთან":5243,"კონკრეტულ":5244,"გიორგ":5245,"##ანაწ":5246,"##არულ":5247,"ესპან":5248,"##if":5249,"##რავ":5250,"##ყოფს":5251,"დედას":5252,"გავიდა":5253,"მეუღ":5254,"ფინანსური":5255,"##ახელმწიფ":5256,"##ემოკ":5257,"##აციული":5258,"უტ":5259,"##ისგან":5260,"29":5261,"##რზე":5262,"##madlo":5263,"##ენერ":5264,"ანგ":5265,"198":5266,"შემოქმედ":5267,"##ბს":5268,"##წერთ":5269,"აგრეთვე":5270,"ქონდა":5271,"##მელი":5272,"##ძლო":5273,"იშ":5274,"უარყო":5275,"ჰქონდათ":5276,"უმრავლესობა":5277,"სასაც":5278,"##აკს":5279,"მინისტრმა":5280,"##ესტი":5281,"ნომერს":5282,"გო":5283,"##ill":5284,"##იზუსტ":5285,"ზოგიერთ":5286,"##იმო":5287,"საუკუნის":5288,"##ოვნების":5289,"##ტების":5290,"##ენციალური":5291,"ქალბატონ":5292,"##მია":5293,"tr":5294,"##უმენტი":5295,"##ემბრის":5296,"##ეტს":5297,"წუთში":5298,"ელოდ":5299,"##დაბ":5300,"##ებებით":5301,"##ჭირს":5302,"საკრებულ":5303,"ურთიერთობა":5304,"შესვლის":5305,"მიზნები":5306,"##არემ":5307,"ვაი":5308,"ანტ":5309,"2014":5310,"ჩამოვ":5311,"ბოდიში":5312,"კაცმა":5313,"არქ":5314,"სკოლის":5315,"პირობები":5316,"##შის":5317,"დაას":5318,"##ობისათვის":5319,"გაწ":5320,"kargi":5321,"##ცენტრ":5322,"##ავადმყოფ":5323,"ბიჭი":5324,"ცხოვრობს":5325,"##ეროდ":5326,"##ave":5327,"##უშევ":5328,"უწოდ":5329,"ნახე":5330,"##წეროთ":5331,"##ლაგ":5332,"##ლან":5333,"მილ":5334,"##ზავნა":5335,"კატეგორი":5336,"უმაღლესი":5337,"უშიშრო":5338,"ეგრევე":5339,"მსხვერპ":5340,"პი":5341,"სამართალდამც":5342,"სქემ":5343,"##ris":5344,"პრეზიდენტს":5345,"საათი":5346,"სანდ":5347,"მართლმადიდ":5348,"ორგანიზაცია":5349,"##ონავირ":5350,"სიმართლე":5351,"##ჩე":5352,"დაიხ":5353,"ქალაქში":5354,"ინიციატივით":5355,"##დებულ":5356,"არი":5357,"ჯგუფი":5358,"##ცევა":5359,"საგამოძიებო":5360,"##ნაირად":5361,"სამსახური":5362,"ტარი":5363,"##ამიწ":5364,"##ევთ":5365,"დაგვ":5366,"##ნიკური":5367,"გამოქვე":5368,"ჩაკ":5369,"##ავაზ":5370,"##ცე":5371,"შემდეგი":5372,"სიბ":5373,"მოსახლეობა":5374,"ჯორ":5375,"კორუფ":5376,"სუბიექტ":5377,"##ითა":5378,"დაიწყეს":5379,"procent":5380,"უახლოეს":5381,"შეცდომა":5382,"ჰქონდეს":5383,"ნამდ":5384,"სადღაც":5385,"##ჭრ":5386,"დასაქმ":5387,"##ციო":5388,"აა":5389,"დაღუპ":5390,"აქეთ":5391,"უკაცრ":5392,"მოსალოდ":5393,"გადავიხ":5394,"მომწონს":5395,"##იტეტი":5396,"##16":5397,"ეგეთ":5398,"სასწავლ":5399,"ჩვეულებრივი":5400,"##რეკ":5401,"##ულებს":5402,"ოკუპ":5403,"გადაწყვი":5404,"აღვ":5405,"გამორჩ":5406,"##თხოვა":5407,"გამოძიება":5408,"##ავები":5409,"რეაქ":5410,"პროდუქტებთან":5411,"##პექტი":5412,"##შემა":5413,"მათთვის":5414,"##ილებს":5415,"არჩევანის":5416,"მთავრობ":5417,"ფონზე":5418,"ზოგიერთი":5419,"შორს":5420,"##val":5421,"##ეწ":5422,"სულაც":5423,"##18":5424,"##თქვა":5425,"ხდებოდა":5426,"##უგდიდ":5427,"##იმში":5428,"##avi":5429,"ესეთი":5430,"##მხ":5431,"მითხრა":5432,"გეთანხმები":5433,"პროპ":5434,"ხასიათს":5435,"ბლოკ":5436,"##რავს":5437,"თარიღი":5438,"შეტყობინ":5439,"##iricx":5440,"##ომენდ":5441,"საპრეზიდენტო":5442,"##დინა":5443,"ნანა":5444,"მკვლელობის":5445,"##აკითხ":5446,"ვგულისხმ":5447,"კას":5448,"კორონავირ":5449,"##პერი":5450,"იტყვის":5451,"59":5452,"სოხ":5453,"გლობა":5454,"sxva":5455,"##pas":5456,"დები":5457,"wh":5458,"##ატურა":5459,"არგუმენტ":5460,"მოტი":5461,"შესაძლებლობა":5462,"##ნელია":5463,"##omat":5464,"##17":5465,"##ყენა":5466,"##ჟე":5467,"ნიჭ":5468,"##ატრიარქ":5469,"კონფიდენციალური":5470,"##istr":5471,"##tk":5472,"##ომი":5473,"##ნად":5474,"ცუდად":5475,"ინიციატივა":5476,"##როპ":5477,"##იმი":5478,"mq":5479,"რესურსები":5480,"გეტყვით":5481,"##eg":5482,"ავტობ":5483,"სიმღერ":5484,"სამართლიან":5485,"##14":5486,"გუბ":5487,"##na":5488,"ზუგდიდ":5489,"სიყვარული":5490,"dz":5491,"გადაღ":5492,"ავი":5493,"გამსახურდიას":5494,"გრეჩ":5495,"რაში":5496,"დღევანდელ":5497,"კვ":5498,"გაფორმ":5499,"კეთდება":5500,"გაგვი":5501,"დედამიწ":5502,"erti":5503,"##არალ":5504,"##აცვლ":5505,"თქვენც":5506,"ნამდვილი":5507,"პოლიტიკას":5508,"ლა":5509,"დაგეხმარებათ":5510,"##of":5511,"ეკა":5512,"baratis":5513,"ჩადენილი":5514,"შალვა":5515,"აგრესი":5516,"##აზრის":5517,"მონაწილეობა":5518,"დღესაც":5519,"კაცის":5520,"უკაცრავად":5521,"##კს":5522,"მიშამ":5523,"საშუალებას":5524,"ზღაპ":5525,"გადმოგ":5526,"საავადმყოფ":5527,"რომელზეც":5528,"აქტივ":5529,"მშვენიერ":5530,"შარშ":5531,"დაგიკავშირდებით":5532,"რეკომენდ":5533,"დაიღ":5534,"##ერას":5535,"გადმორიცხ":5536,"სამაგი":5537,"აღმ":5538,"##ძინ":5539,"ხელის":5540,"ტურნ":5541,"ბერძ":5542,"მინიმალური":5543,"ვერავინ":5544,"გადასახდელი":5545,"ღია":5546,"ფორმულა":5547,"მშვიდობიან":5548,"მშობლ":5549,"აღარა":5550,"სახელფასო":5551,"ჯავ":5552,"დაფარვა":5553,"ნახეთ":5554,"##ალურია":5555,"saqartvelos":5556,"გამოყენება":5557,"##ხსნათ":5558,"##ber":5559,"##ალმა":5560,"ოკუპირებული":5561,"55":5562,"##გულირ":5563,"ძი":5564,"##უჟ":5565,"##ricxe":5566,"პროფესიონ":5567,"მასთან":5568,"##ეტყველ":5569,"ეფექტ":5570,"შეუძლებელია":5571,"32":5572,"ფანჯ":5573,"პეტ":5574,"მიმა":5575,"უკანასკნელი":5576,"სარე":5577,"##ციაში":5578,"პაპ":5579,"ივნისის":5580,"სტანდარტული":5581,"გლობალიზ":5582,"მოსკო":5583,"##სრულების":5584,"დაად":5585,"დამატებითი":5586,"##ებლებს":5587,"##ეკითხ":5588,"ივანიშვილი":5589,"გადაუხ":5590,"ადგილას":5591,"გულის":5592,"ვთ":5593,"##ღალატ":5594,"ზომ":5595,"თემაზე":5596,"მეოთ":5597,"კრედიტ":5598,"##ჭერს":5599,"##ხვდი":5600,"##გარიშ":5601,"ამონ":5602,"შემოსავლ":5603,"##ეხი":5604,"ოჯახი":5605,"##chi":5606,"##ხსენი":5607,"მარცხ":5608,"პროტეს":5609,"ტენდენ":5610,"დამთავრ":5611,"##ეის":5612,"##აბილი":5613,"ია":5614,"##წყინ":5615,"vi":5616,"გაერთიანებული":5617,"##uk":5618,"შანს":5619,"დამოკიდებული":5620,"##რისტ":5621,"ვითარ":5622,"უკეთეს":5623,"მასზე":5624,"კოს":5625,"სარგ":5626,"1500":5627,"##უას":5628,"tanxis":5629,"მოსახლეობას":5630,"სასურველი":5631,"სახელისუფლ":5632,"##ალოს":5633,"##ჯოს":5634,"##ებადი":5635,"გაგვა":5636,"განიც":5637,"ჩვენც":5638,"##იტო":5639,"ვარიანტი":5640,"პროგნოზი":5641,"აბსოლუტურად":5642,"ჩე":5643,"შეგიძლია":5644,"ნაციონალურ":5645,"ისტორიაში":5646,"მისცა":5647,"##იდება":5648,"სფეროში":5649,"##იაქ":5650,"დაეს":5651,"##ელექტ":5652,"თვალსაზრის":5653,"მთლად":5654,"მოძრაობას":5655,"განსხვავებით":5656,"იზრდება":5657,"##უტი":5658,"დავიწყ":5659,"ერა":5660,"##ოვებს":5661,"##ver":5662,"ადე":5663,"არჩევნებზე":5664,"თქვენთან":5665,"##გვარად":5666,"სოფელ":5667,"უნივერსიტეტის":5668,"სტატუსის":5669,"ბირ":5670,"გისმ":5671,"არასწორ":5672,"ვაგ":5673,"ჯანდაცვის":5674,"გაძ":5675,"##usha":5676,"45":5677,"სასჯელ":5678,"წინს":5679,"##13":5680,"იცოდა":5681,"ელემენტ":5682,"სწრაფ":5683,"დელ":5684,"##ნებოდა":5685,"ვგულისხმობ":5686,"##აბილ":5687,"ჯი":5688,"ესმის":5689,"დარჩენილი":5690,"განიხილ":5691,"დღეებში":5692,"momiv":5693,"##კვეთა":5694,"დასკვნ":5695,"ძლიერ":5696,"მაურ":5697,"რამის":5698,"მეხ":5699,"მგზავ":5700,"სხდომაზე":5701,"##უწყ":5702,"##ვალში":5703,"##ტიკურ":5704,"##ველები":5705,"##ირს":5706,"შავ":5707,"სააკაშვილს":5708,"##ზო":5709,"##ატურის":5710,"##გონი":5711,"განუცხადა":5712,"##ებებში":5713,"გოგო":5714,"განთავს":5715,"ლეგ":5716,"ვას":5717,"პროპაგან":5718,"იფ":5719,"ლარიანი":5720,"##ხსნება":5721,"##ზმი":5722,"##ესა":5723,"ქვია":5724,"აშშის":5725,"ისაუბ":5726,"##უზე":5727,"აზრის":5728,"აქვე":5729,"ნარკო":5730,"შეცვლა":5731,"მართვის":5732,"განსაკუთრებული":5733,"ფიქრობს":5734,"ise":5735,"ვისი":5736,"დიპლომატიური":5737,"##ნელის":5738,"##ყავდა":5739,"##რამ":5740,"##ვალს":5741,"ვკითხ":5742,"უგულ":5743,"კვირაში":5744,"gmadlo":5745,"ცივილიზაციის":5746,"დავხ":5747,"გამოწ":5748,"##პორტში":5749,"მათგან":5750,"განადგურ":5751,"დაარ":5752,"თითოეულ":5753,"ანალიზ":5754,"მიუთითეთ":5755,"დამოუკიდებელი":5756,"საშუალო":5757,"ბულ":5758,"ქვეყნების":5759,"პრემიერმინისტრმა":5760,"არმი":5761,"ინფრასტრუქტურის":5762,"can":5763,"პლუს":5764,"##წირა":5765,"##ხმა":5766,"ფირ":5767,"##იდაშ":5768,"##amde":5769,"სინამდვილეში":5770,"გულშემა":5771,"##ისტური":5772,"მშენებლობა":5773,"##მარის":5774,"რატომღაც":5775,"##იციპ":5776,"##წლ":5777,"მუხლის":5778,"სურთ":5779,"სექსუალური":5780,"პაცი":5781,"გაან":5782,"რეაგირება":5783,"banki":5784,"შეუძლიათ":5785,"კანონმდებლ":5786,"ბუნებრი":5787,"ყოველგვარი":5788,"##იცხვ":5789,"შემთხვევ":5790,"ანტი":5791,"გაქც":5792,"მამაკაც":5793,"##აბი":5794,"##მში":5795,"2003":5796,"მუშაობენ":5797,"უარეს":5798,"მდგომარეობაში":5799,"რადგანაც":5800,"##აზუსტ":5801,"სახელით":5802,"##ჩის":5803,"გადაცემა":5804,"თვალსაზრისით":5805,"ერს":5806,"that":5807,"თიბ":5808,"იგულისხმ":5809,"აცხადებენ":5810,"სიტყვით":5811,"დანგრ":5812,"ბედნიერ":5813,"მამუკა":5814,"გაეროს":5815,"უნივერსიტეტ":5816,"რთული":5817,"გადასახად":5818,"შევარდნაძის":5819,"##იტრ":5820,"დაუბრუნ":5821,"ინტერპრეტაცია":5822,"მანჩ":5823,"ხიდაშ":5824,"ბრაზ":5825,"ბრალი":5826,"ანდ":5827,"##fas":5828,"მუნიციპ":5829,"წესების":5830,"საოც":5831,"არსად":5832,"მაგიტომ":5833,"gadas":5834,"ირგვლი":5835,"გრიგ":5836,"გაეც":5837,"რუსეთმა":5838,"სტუდენტური":5839,"##არიბ":5840,"რეგიონულ":5841,"სააკაშვილმა":5842,"ისახება":5843,"გადაგ":5844,"თავიანთი":5845,"##ex":5846,"საჩუქ":5847,"წლიური":5848,"ერაყ":5849,"##ატყ":5850,"ხაზი":5851,"##ულობის":5852,"წყალი":5853,"shesad":5854,"##არად":5855,"პას":5856,"ბრალდებით":5857,"უდ":5858,"სამაგიეროდ":5859,"დაკავშირება":5860,"ცალ":5861,"განახ":5862,"უფასო":5863,"წარმომადგენლ":5864,"მაშინდელ":5865,"##არც":5866,"კანდიდატს":5867,"ეძახ":5868,"##rat":5869,"მოწოდება":5870,"pas":5871,"##ედური":5872,"id":5873,"##ინგის":5874,"იაპ":5875,"##ლისთვის":5876,"##ეჭდ":5877,"##არაგ":5878,"მიე":5879,"შედის":5880,"ვერა":5881,"მოთამაშ":5882,"ხეობაში":5883,"ვახტან":5884,"დარიცხ":5885,"##ნგ":5886,"მყოფი":5887,"გაუგებ":5888,"##iq":5889,"პატრ":5890,"მხედ":5891,"##ველად":5892,"ამერიკაში":5893,"##ara":5894,"##ზმის":5895,"##ვეში":5896,"ვმ":5897,"##იდუმ":5898,"დაგვიკავშირდეთ":5899,"ცხო":5900,"უდიდესი":5901,"##tkic":5902,"წმინდა":5903,"სესხს":5904,"სამართლ":5905,"ტო":5906,"ირგვლივ":5907,"პასუხისმგებლობას":5908,"პალ":5909,"ბილ":5910,"ღამის":5911,"gamov":5912,"მეგონა":5913,"ბიბ":5914,"ვილ":5915,"##ებათა":5916,"დეპარტამენტის":5917,"ქრისტიან":5918,"##ეთქი":5919,"კანონპრო":5920,"მარჯვენ":5921,"აჰა":5922,"ბარათიდან":5923,"გაჭირ":5924,"##ჯობეს":5925,"რამდენჯერ":5926,"იაფ":5927,"სხდომის":5928,"დიმ":5929,"ვლად":5930,"##აწერი":5931,"მელ":5932,"მისგან":5933,"ორგანიზაციების":5934,"სპექტ":5935,"##ახსენებთ":5936,"ისარგებლ":5937,"სასწრაფ":5938,"განსხვავებული":5939,"ნათქვამია":5940,"##uc":5941,"სკოლაში":5942,"შემოწმ":5943,"სამსახურში":5944,"##აწვდომ":5945,"ეკლესიის":5946,"ბრალია":5947,"გგონია":5948,"დია":5949,"ფიზიკ":5950,"##ყვება":5951,"თემაა":5952,"##წამ":5953,"კონკურს":5954,"მიღების":5955,"მოახდინა":5956,"დოლარის":5957,"ელექტრო":5958,"საფრთხეები":5959,"შემოვ":5960,"##ქცი":5961,"გაკეთებული":5962,"ორჯერ":5963,"ნაციონალიზმი":5964,"##გრძნ":5965,"ჯამში":5966,"დაწესებულ":5967,"##rom":5968,"წინადადება":5969,"ოქრუ":5970,"##მინისტ":5971,"საბუთი":5972,"##პრავ":5973,"ვან":5974,"ადრეს":5975,"##ავლი":5976,"სიღ":5977,"##ადგინა":5978,"nomer":5979,"შედგ":5980,"დავრჩ":5981,"გისმენთ":5982,"ცხოვრებაში":5983,"მოწმობა":5984,"##ჩხ":5985,"წამოი":5986,"დაუს":5987,"ტექნიკური":5988,"რუსების":5989,"რაიონის":5990,"მცხოვრებ":5991,"gmadlobt":5992,"##istvis":5993,"ერთმანეთის":5994,"შარაძის":5995,"##პარე":5996,"ტელეფონის":5997,"ძალაუფ":5998,"##kvs":5999,"ქვეყნებში":6000,"##იშვილმა":6001,"პოლიცია":6002,"ილ":6003,"ნაცებს":6004,"სასჯელაღ":6005,"სახელისუფლებო":6006,"გამთ":6007,"##ემბრიდან":6008,"სააგენტ":6009,"მილიარდ":6010,"პრობლემაა":6011,"ორტ":6012,"დავამ":6013,"ქალის":6014,"საპატრიარქ":6015,"##ახს":6016,"სიხ":6017,"##ჩევთ":6018,"განაღდება":6019,"##იზმის":6020,"ამერიკა":6021,"##ობდი":6022,"მოგვი":6023,"##ოსოფ":6024,"ვთქვი":6025,"##მეტი":6026,"ამხელა":6027,"online":6028,"პერსპექტი":6029,"##ლებმაც":6030,"კორპ":6031,"##შორ":6032,"მენტ":6033,"გადაამოწმოთ":6034,"ვიტყვი":6035,"გადის":6036,"##ვლიან":6037,"აქაც":6038,"ველ":6039,"რეალობა":6040,"გლობალიზაცია":6041,"ენაზე":6042,"კამპ":6043,"ველში":6044,"ნდობა":6045,"ganvad":6046,"##ეტა":6047,"უფროსი":6048,"ზაზა":6049,"დარჩება":6050,"##ოვნებ":6051,"საკომისიოს":6052,"გასამართლ":6053,"##აციებს":6054,"ჩამოგ":6055,"ითვალისწინ":6056,"##ვდ":6057,"ნაციონალ":6058,"##წევთ":6059,"##ტერი":6060,"ხელმის":6061,"დემოკრატიის":6062,"უშიშროების":6063,"ავღან":6064,"ავადმყოფ":6065,"mon":6066,"იქით":6067,"ტრამ":6068,"ყავს":6069,"##ach":6070,"საზღვარგ":6071,"##ადოს":6072,"გამოაცხ":6073,"მოგვე":6074,"მუდამ":6075,"##უთვნის":6076,"##ორიტეტ":6077,"კანდიდატის":6078,"დაადასტურ":6079,"აშშს":6080,"ბადრი":6081,"ბავშვები":6082,"გადასახადი":6083,"დილით":6084,"ერთიანი":6085,"უბედურ":6086,"##ვანი":6087,"##გად":6088,"##ნიან":6089,"##ამენ":6090,"##თაც":6091,"ტაძ":6092,"##nax":6093,"სახლის":6094,"ვანო":6095,"საქმეზე":6096,"acc":6097,"მთლიანობის":6098,"##ლავ":6099,"გარშემ":6100,"##ატეს":6101,"ამტკიც":6102,"მესი":6103,"იურიდიული":6104,"ლიმიტი":6105,"მობილური":6106,"წარმოიდგ":6107,"მჯერა":6108,"კონსტიტუცი":6109,"ლინ":6110,"##ანაირ":6111,"მექანი":6112,"ალტერნატიული":6113,"არაფრის":6114,"უზენა":6115,"სავა":6116,"ვხვ":6117,"ტური":6118,"მოცემული":6119,"საში":6120,"##არდო":6121,"ორტეგ":6122,"მარე":6123,"შო":6124,"##ount":6125,"##ირებს":6126,"სპეციალური":6127,"პოტენცი":6128,"სირცხ":6129,"მზადაა":6130,"ოპოზიციას":6131,"##ლიც":6132,"ზონ":6133,"წითელ":6134,"ne":6135,"ტერიტორიებზე":6136,"ჯარიმა":6137,"##ive":6138,"##ებულს":6139,"##წუნ":6140,"##მობა":6141,"##200":6142,"იქნებიან":6143,"იმით":6144,"დეპუტატმა":6145,"ხარჯზე":6146,"შეღ":6147,"##ურები":6148,"##ურგ":6149,"აზრს":6150,"##უელ":6151,"ინსტრუქ":6152,"##40":6153,"##რდება":6154,"##ენტს":6155,"კედ":6156,"##60":6157,"მებ":6158,"##ამეტ":6159,"მაქსიმ":6160,"შეხვედრის":6161,"პოლონ":6162,"დილ":6163,"##ime":6164,"მმართველობის":6165,"თემებს":6166,"გიხდით":6167,"##წერება":6168,"ტა":6169,"გვექ":6170,"ხა":6171,"იარაღი":6172,"##ვალოს":6173,"დალ":6174,"ჰკითხ":6175,"ზეწ":6176,"##ჭრო":6177,"აღმა":6178,"ინვესტი":6179,"##ფერენცია":6180,"##ორა":6181,"##უბნება":6182,"დროებით":6183,"##ishi":6184,"##tan":6185,"რეგისტრაცია":6186,"ფუნქცი":6187,"აპარატიდან":6188,"##ისტებს":6189,"გამოცდილი":6190,"მიყვარს":6191,"პარტიკ":6192,"##ძესთან":6193,"კენ":6194,"რომლებმაც":6195,"##სახი":6196,"##გოგ":6197,"პარალელ":6198,"##ვილის":6199,"დასახელ":6200,"ვადის":6201,"მოედ":6202,"ხელმისაწვდომ":6203,"ვაჭ":6204,"მსჯელ":6205,"##ურც":6206,"ესეში":6207,"დაწერა":6208,"iy":6209,"გენერალური":6210,"600":6211,"გასეტი":6212,"##ავეს":6213,"რაზე":6214,"პარტიკულარული":6215,"მიტმასვნა":6216,"##რიანი":6217,"სალ":6218,"მიტმასვნის":6219,"სეკურიტიზ":6220,"დავალ":6221,"##ორჩილ":6222,"ჩეჩნ":6223,"ქრისტ":6224,"დაპირ":6225,"დარღვევა":6226,"##ლოთ":6227,"ვადაგ":6228,"საკონს":6229,"სასამართლოში":6230,"ბრძოლის":6231,"შუალ":6232,"##იზმი":6233,"წაიკითხ":6234,"##ებებზე":6235,"ნელ":6236,"ბარათების":6237,"##ონაწილ":6238,"31":6239,"##იკვირ":6240,"##ძლევა":6241,"საცხოვრ":6242,"სცადეთ":6243,"გამონ":6244,"გაიმართა":6245,"მიდგ":6246,"ავრცელ":6247,"გამოიწვია":6248,"ჩარიცხვა":6249,"სასჯელაღსრულების":6250,"ქარხ":6251,"ვიმყოფ":6252,"რავი":6253,"##wers":6254,"წააგ":6255,"რესპუბლიკის":6256,"დაინიშნა":6257,"ჩამომ":6258,"გამოქვეყნ":6259,"არაკ":6260,"პრემიერმინისტ":6261,"აფეთქ":6262,"გიგ":6263,"##პორტო":6264,"##ულიც":6265,"შემთხვევით":6266,"##lod":6267,"იყენებს":6268,"ვნახოთ":6269,"ახლაც":6270,"##შინია":6271,"მოსწავლ":6272,"##ველებს":6273,"ww":6274,"ოქტომბერში":6275,"##როლა":6276,"ბიძინ":6277,"ერთმა":6278,"დამარცხ":6279,"დაგავიწყდათ":6280,"##ოვეს":6281,"ფლობს":6282,"კანონმდებლობის":6283,"პარლამ":6284,"##ოლიდ":6285,"2007":6286,"გადავამოწმ":6287,"სასჯ":6288,"შეიძლ":6289,"დარბაზ":6290,"იხილ":6291,"საგანგებო":6292,"აკეთებენ":6293,"ექვს":6294,"საპროცეს":6295,"შემოთ":6296,"გახსოვთ":6297,"ფაქტიურად":6298,"ვარიანტ":6299,"მემკვიდრეობის":6300,"საუბარს":6301,"##ხი":6302,"##აროთ":6303,"##ახან":6304,"მოგვარების":6305,"##ვიდნენ":6306,"ყაზ":6307,"შა":6308,"პასუხის":6309,"განვითარებული":6310,"გაკეთდა":6311,"ბექა":6312,"გამოჩნდება":6313,"##რემ":6314,"##90":6315,"დასაბუთ":6316,"##გრეს":6317,"shesadzleb":6318,"##ოსო":6319,"ეჰ":6320,"##არიგ":6321,"##80":6322,"##ვილად":6323,"##წვი":6324,"მიიჩნევს":6325,"მაისს":6326,"##ძრა":6327,"მოითხოვს":6328,"მიწოდ":6329,"ფილოსოფ":6330,"##ურნალ":6331,"გაიმართება":6332,"gadavix":6333,"სოციალურ":6334,"##ინში":6335,"##ებულის":6336,"რიცხვ":6337,"##წლი":6338,"ლიგ":6339,"##შეს":6340,"##ყვანის":6341,"##ანთ":6342,"შინაარს":6343,"##გუ":6344,"მაგარია":6345,"ჯარისკაც":6346,"მანჩესტერ":6347,"მიც":6348,"ნატოში":6349,"ამჯერ":6350,"ტალ":6351,"გააგრძელებს":6352,"პირს":6353,"##რიცხე":6354,"##ჩევს":6355,"არაერთ":6356,"mobil":6357,"##ებეს":6358,"##არტო":6359,"კეთილდღ":6360,"##ფილ":6361,"გახდეს":6362,"გააკეთონ":6363,"##ათლ":6364,"რისთვის":6365,"##არებული":6366,"დაწყებას":6367,"ბე":6368,"##იცვალა":6369,"არაბ":6370,"ედუ":6371,"ნად":6372,"ტემ":6373,"კითხვები":6374,"ასოცი":6375,"qu":6376,"პაროლს":6377,"სხვანაირად":6378,"not":6379,"მტერ":6380,"პირდაპირი":6381,"სწავლა":6382,"##აციაზე":6383,"გზები":6384,"დაკავებული":6385,"რომან":6386,"წარმომადგენელი":6387,"კრიზის":6388,"უბრალო":6389,"უპ":6390,"##ებდეს":6391,"##ebas":6392,"პერიოდი":6393,"##ოთი":6394,"##ორების":6395,"იქვე":6396,"პუტინის":6397,"##ონმა":6398,"##უკითხ":6399,"##რჩე":6400,"მაგივრად":6401,"##ესალმ":6402,"ტექნ":6403,"კოდორის":6404,"მოგე":6405,"პროფეს":6406,"პრეტენზიები":6407,"თავით":6408,"სპორტ":6409,"დასკვნა":6410,"კონტროლის":6411,"ნოდ":6412,"##ანაღ":6413,"მტერი":6414,"დაშვ":6415,"will":6416,"mog":6417,"სამშობლოს":6418,"shevdivar":6419,"გრეჩიხ":6420,"დაზარალ":6421,"##თუ":6422,"დეკემბერში":6423,"შელ":6424,"ვლადიმ":6425,"ბრა":6426,"ძალების":6427,"ვახტანგ":6428,"##რიცხავ":6429,"we":6430,"dro":6431,"ბლი":6432,"დო":6433,"უშვ":6434,"სტატის":6435,"pl":6436,"ხუთი":6437,"დაიწყება":6438,"ყოვ":6439,"აქტიურ":6440,"გეს":6441,"კონფლიქტების":6442,"გაჩერ":6443,"##ყვარე":6444,"ხალხო":6445,"##მულია":6446,"შორ":6447,"ოცნებ":6448,"რაიონ":6449,"აგენტ":6450,"სსრ":6451,"ტელევიზი":6452,"ანგარიშს":6453,"##ჯა":6454,"ამან":6455,"ვადაგადაც":6456,"დავალიანება":6457,"მომდევ":6458,"გადაბ":6459,"გამოიხ":6460,"მიწერს":6461,"##ორში":6462,"ნარკოტიკ":6463,"##ინიგ":6464,"ოფიციალურად":6465,"##აფარი":6466,"კოლეგ":6467,"ბლ":6468,"ჰქვია":6469,"ეთნიკური":6470,"აჩვენ":6471,"##ხანს":6472,"საჭ":6473,"კრემ":6474,"##თაგან":6475,"მინდოდა":6476,"ქართველების":6477,"bolo":6478,"##შაბათს":6479,"##ემოკრატი":6480,"ფასეულ":6481,"##არკვი":6482,"შეხვ":6483,"კომპანიის":6484,"ნატო":6485,"დეტალურად":6486,"იდეა":6487,"##ებელმა":6488,"პასუხები":6489,"წარმატებით":6490,"ისტორიის":6491,"##ერად":6492,"##ალზე":6493,"##ნებას":6494,"700":6495,"##ფიქრ":6496,"მონაწილეობას":6497,"მარჯვენა":6498,"მატჩი":6499,"შემოთავაზ":6500,"ამონაწერი":6501,"საპროცესო":6502,"თქვენთვის":6503,"აზროვნ":6504,"გასულ":6505,"##გონიათ":6506,"უღ":6507,"უგ":6508,"შუქი":6509,"კომის":6510,"ბათუმში":6511,"დაუშვა":6512,"##იუ":6513,"##დებს":6514,"##ულიდან":6515,"##ჩენ":6516,"##პის":6517,"გვქონდა":6518,"##ცევ":6519,"34":6520,"ელის":6521,"პრა":6522,"წრე":6523,"##ავრ":6524,"##გრძნობ":6525,"ერთს":6526,"გამოფ":6527,"აკადემ":6528,"თურქეთის":6529,"##ობდეს":6530,"გამგ":6531,"ამომრჩე":6532,"ვარს":6533,"##ტური":6534,"არცერთი":6535,"##ერნ":6536,"ითხოვს":6537,"დაწყებული":6538,"შეკითხვას":6539,"მონაცემებით":6540,"ხედავ":6541,"მაჟ":6542,"სადებ":6543,"##ushaob":6544,"შესაფ":6545,"av":6546,"პლი":6547,"##აქტო":6548,"##wy":6549,"მადლობთ":6550,"ომში":6551,"##acia":6552,"იხდის":6553,"##იმედ":6554,"იგულისხმება":6555,"კავკას":6556,"ფილიალები":6557,"სავაჭრო":6558,"არასამთავრობო":6559,"საქართველოსთვის":6560,"მოუხ":6561,"წერილი":6562,"##ოდეთ":6563,"ხანი":6564,"მომდევნო":6565,"ხატ":6566,"მობილურზე":6567,"ნივთ":6568,"##კები":6569,"##ელიძე":6570,"ვწერ":6571,"სარკ":6572,"ალიანსი":6573,"##დროულად":6574,"გამართულ":6575,"ვაკეთ":6576,"ხანდა":6577,"დააკავეს":6578,"ვოლ":6579,"მოიცავს":6580,"##ხართ":6581,"##venebs":6582,"ენის":6583,"კონფლიქტის":6584,"##წრო":6585,"საიდუმ":6586,"ზედმეტ":6587,"ტელეკ":6588,"მსახი":6589,"ხარვეზი":6590,"##აკო":6591,"დარეგისტრ":6592,"mqonda":6593,"ეძ":6594,"გაცემა":6595,"ამოც":6596,"ეგრეა":6597,"დაადანაშა":6598,"mich":6599,"იანვარში":6600,"ნათეს":6601,"სესხით":6602,"დახმარების":6603,"ამბოხ":6604,"უშუალოდ":6605,"nax":6606,"##იზიან":6607,"##ark":6608,"რაიონში":6609,"კაცია":6610,"##ada":6611,"##owm":6612,"##ტიტუცი":6613,"მომხდარი":6614,"ქონების":6615,"ბოზ":6616,"რუბ":6617,"ბოროტ":6618,"##აზრო":6619,"ღრმა":6620,"##ობად":6621,"##იდია":6622,"სახლი":6623,"აგი":6624,"არავითარი":6625,"წყლის":6626,"სამშვიდობ":6627,"have":6628,"makvs":6629,"##გიის":6630,"ემსახურ":6631,"მუნიციპალიტ":6632,"ქორ":6633,"გზაზე":6634,"ბიუჯეტის":6635,"დღეა":6636,"არჩევა":6637,"მოაწერა":6638,"ტრავ":6639,"მრავალი":6640,"##ქო":6641,"vici":6642,"##ჩევნია":6643,"##ib":6644,"დასავლური":6645,"rag":6646,"ოფიც":6647,"დაბალი":6648,"##დებული":6649,"პარლამენტი":6650,"##ებიო":6651,"საქცი":6652,"შეძლო":6653,"##ნოს":6654,"კოალი":6655,"##ერებს":6656,"##ალოგ":6657,"დემოკრატია":6658,"უკავშირ":6659,"სახელობის":6660,"სილ":6661,"მარეგულირ":6662,"საზღვარგარეთ":6663,"შეგახსენებთ":6664,"კარდ":6665,"გამოჩნდა":6666,"მიმაჩნია":6667,"ტყუილად":6668,"განაღდების":6669,"გასაკვირ":6670,"იმასაც":6671,"##ore":6672,"##აზღა":6673,"##ატება":6674,"შესანიშნ":6675,"##ბლოკ":6676,"შეთანხმებით":6677,"გარანტ":6678,"მენე":6679,"სადაზ":6680,"##ხმაროთ":6681,"##70":6682,"გაიზარდა":6683,"##ilial":6684,"ნაკრები":6685,"##აციასთან":6686,"ფარ":6687,"momivida":6688,"თავდას":6689,"გასამ":6690,"არაფერია":6691,"##ტიკოს":6692,"##ator":6693,"##იტრი":6694,"##ალიზმის":6695,"წინათ":6696,"ნოემბერს":6697,"გარშემო":6698,"##ადგურება":6699,"ნება":6700,"მიიღეს":6701,"vnax":6702,"##ელით":6703,"დაუთ":6704,"##argeblo":6705,"##oda":6706,"გავაკეთებთ":6707,"ერთმანეთთან":6708,"მოგაწოდოთ":6709,"მოსალოდნელი":6710,"##არმო":6711,"##lian":6712,"##წყოთ":6713,"ზაფხ":6714,"გაყალბების":6715,"მკაც":6716,"##ტესტო":6717,"უწევს":6718,"დაიჭირ":6719,"##af":6720,"##რიცხება":6721,"vc":6722,"##რაზ":6723,"ახდენს":6724,"ლამის":6725,"##ნული":6726,"##იმეს":6727,"##კარა":6728,"##კვირვ":6729,"კვალი":6730,"გადაწყვეტილებას":6731,"##ოვნა":6732,"სახს":6733,"მობილურის":6734,"##ებსო":6735,"საწინააღმდეგ":6736,"ამათი":6737,"##25":6738,"##რილ":6739,"saxel":6740,"##აიას":6741,"განადგურება":6742,"##ასტრო":6743,"##ველება":6744,"პატრიარქ":6745,"##ჯან":6746,"საკმარის":6747,"თელ":6748,"##ინდელი":6749,"მომივიდა":6750,"კარტ":6751,"##მომსახურ":6752,"##esxige":6753,"გავაკეთოთ":6754,"ert":6755,"დაგჭირდებათ":6756,"კოდექსში":6757,"##არქი":6758,"##ოვნად":6759,"საქმეა":6760,"თავმჯდომარის":6761,"##ულებით":6762,"გაურ":6763,"სტაბილ":6764,"at":6765,"უპირატეს":6766,"##ენისას":6767,"ნარკ":6768,"ლარში":6769,"##ჯის":6770,"##100":6771,"გზას":6772,"გმირ":6773,"##ანად":6774,"მაგალითი":6775,"მათთან":6776,"გარდაიცვალა":6777,"მაჟორიტ":6778,"gadasax":6779,"რადიკ":6780,"ვებგ":6781,"აძლევს":6782,"ემო":6783,"გაამ":6784,"გაიმარჯ":6785,"ვიცოდი":6786,"გაშ":6787,"ჩაბ":6788,"თანამონაწილ":6789,"##რებთან":6790,"გაზის":6791,"გახსნილი":6792,"ჟურნალისტებს":6793,"კადრების":6794,"მოწმობის":6795,"გაუს":6796,"ოდენობით":6797,"ბავშვის":6798,"ნახა":6799,"ითამაშ":6800,"##ავდი":6801,"##oba":6802,"##ოვის":6803,"##ლობის":6804,"ღამე":6805,"##ashvili":6806,"##ვარს":6807,"დაიღუპ":6808,"ითქვას":6809,"იარაღის":6810,"##ჯო":6811,"##entan":6812,"ცხოვრობენ":6813,"##აღი":6814,"ხანში":6815,"ხერხ":6816,"მობრძანდეთ":6817,"##კში":6818,"ვცხოვრ":6819,"ანგარიშთან":6820,"დაძაბ":6821,"##lok":6822,"რაზეც":6823,"ლარია":6824,"ჯე":6825,"დავაზუსტ":6826,"saat":6827,"შესაძლებლ":6828,"ამი":6829,"კინ":6830,"საიდანაც":6831,"იშვ":6832,"##ნელა":6833,"კუბ":6834,"ლარზე":6835,"კობ":6836,"##იდო":6837,"ნაძ":6838,"##ade":6839,"2011":6840,"##ვერტ":6841,"##ღვევა":6842,"##ომას":6843,"ვორ":6844,"ჩახ":6845,"##vev":6846,"ქალები":6847,"პრემიერმა":6848,"მაყურ":6849,"ჰოლ":6850,"წინასწარმ":6851,"ჩანა":6852,"##ვალთ":6853,"mere":6854,"##დრის":6855,"გადავად":6856,"გააძლიერ":6857,"მოწყობის":6858,"ბაზარი":6859,"##ვცემ":6860,"პონ":6861,"ბუნებრივია":6862,"##ულოდ":6863,"my":6864,"2020":6865,"მოლოდ":6866,"##რთხილ":6867,"##ამომ":6868,"##ამათ":6869,"tb":6870,"მდ":6871,"შუა":6872,"საპროტესტო":6873,"შიშ":6874,"მავ":6875,"##ართვა":6876,"მოღალატ":6877,"ხუმ":6878,"##რთა":6879,"##იაშვილი":6880,"ძირი":6881,"სადებეტო":6882,"მეტიც":6883,"მივხვდი":6884,"უცნა":6885,"პროდუქტებთანმომსახურ":6886,"პროდუქტებთანმომსახურებასთან":6887,"დასავლეთის":6888,"გადავა":6889,"არასწორად":6890,"##ლებით":6891,"მიცემ":6892,"ნაბიჯებს":6893,"##orm":6894,"შიში":6895,"ოსეთის":6896,"ჭირდება":6897,"გაგრძელებას":6898,"##ელჩ":6899,"ხელფასის":6900,"აღსანიშნ":6901,"##ულოცა":6902,"ადვოკატ":6903,"სეპარატ":6904,"სცენ":6905,"##ზაცია":6906,"##ულიყო":6907,"kart":6908,"გარემო":6909,"უცებ":6910,"hel":6911,"ფეხბურთელის":6912,"უარს":6913,"ik":6914,"გამახსენ":6915,"გიგა":6916,"საუბრობ":6917,"გააქტიურების":6918,"##აბილიტ":6919,"საკონტ":6920,"##მოთ":6921,"##aq":6922,"##ეიგი":6923,"##აზის":6924,"დაინახ":6925,"გამი":6926,"გამიგ":6927,"ვიცნობ":6928,"##ფერო":6929,"##ებშიც":6930,"გვერდიდან":6931,"win":6932,"##ავიწყდა":6933,"დაიმ":6934,"##ushin":6935,"გოლი":6936,"კაბინეტის":6937,"რუსეთუმ":6938,"მუშაობის":6939,"დამზად":6940,"##ითაც":6941,"##ლითაც":6942,"##ეჭდილ":6943,"განსხვავდება":6944,"ინსტიტუცი":6945,"##ci":6946,"##პინ":6947,"გათვალისწინებით":6948,"იწვევს":6949,"აზრზე":6950,"##თანაბ":6951,"სხვაგან":6952,"ფაქტობრივად":6953,"სიტყვები":6954,"##21":6955,"იდენტი":6956,"ძმ":6957,"განახორციელ":6958,"ვუთხ":6959,"საქართველომ":6960,"ცენტრალური":6961,"კრიტიკის":6962,"##აყ":6963,"##ეტილი":6964,"ეკლესია":6965,"##ირეკ":6966,"ახლად":6967,"##უნქტ":6968,"უმრავლესობის":6969,"##ricxo":6970,"##ნიერი":6971,"აზერბაიჯან":6972,"99":6973,"##urad":6974,"სუფთა":6975,"ამჯერად":6976,"##ყვანილი":6977,"##იურად":6978,"ჩაფ":6979,"ცემ":6980,"მომსახურე":6981,"აფხაზეთი":6982,"დავე":6983,"დამოკიდებულება":6984,"##ელე":6985,"მოედან":6986,"უფლებას":6987,"##ელიც":6988,"ქვეყნისთვის":6989,"სამეგრ":6990,"გადაწყვეტილების":6991,"ცხინვალის":6992,"##ამოდ":6993,"ენერგე":6994,"თვითმფრინ":6995,"ბურთ":6996,"შეფერხება":6997,"##ჩინა":6998,"სასამართლომ":6999,"ტერორ":7000,"ტანკ":7001,"##oble":7002,"დროა":7003,"ოდეს":7004,"##ენაზე":7005,"დაიფ":7006,"ივლისში":7007,"ეკრ":7008,"ღირსებას":7009,"დამთავ":7010,"ხათ":7011,"ისხ":7012,"დეპუტატებს":7013,"თამაშებზე":7014,"სახელს":7015,"ტოტალიზ":7016,"ბრაზილი":7017,"გეუბ":7018,"##ომეტ":7019,"სიკვდილი":7020,"მეგობარი":7021,"სექტემბრიდან":7022,"გაუკეთ":7023,"##ფის":7024,"##udent":7025,"ჭკუ":7026,"მოლ":7027,"##ebt":7028,"მეორეს":7029,"##კუთვნ":7030,"თანხმ":7031,"##ჟის":7032,"ლამაზი":7033,"კომპლექს":7034,"agar":7035,"vis":7036,"ლიტერატურ":7037,"ისრაელის":7038,"##lob":7039,"##ურეს":7040,"მითხრათ":7041,"დაბრუნება":7042,"სტადი":7043,"დედაც":7044,"კვირას":7045,"##მტკიც":7046,"აღნიშნავს":7047,"ჰგავს":7048,"სამუდ":7049,"თავდ":7050,"ვერანაირი":7051,"ვაბ":7052,"##are":7053,"სემ":7054,"##ინტერესებთ":7055,"miwers":7056,"გელ":7057,"##რეთ":7058,"##ნობიერ":7059,"ხელმო":7060,"კონკურენტი":7061,"დატოვა":7062,"მიუ":7063,"ყველანი":7064,"eq":7065,"შევძლებ":7066,"შეიქმნა":7067,"##აბჭ":7068,"##ვეთა":7069,"სვან":7070,"ორიენტ":7071,"ფეხბურთელი":7072,"პერსონალური":7073,"ვერაფერი":7074,"ზამთ":7075,"შეეც":7076,"##აური":7077,"მთა":7078,"განსაზღვრავს":7079,"##ზმ":7080,"##ვლელად":7081,"800":7082,"გვექნება":7083,"##მაგრამ":7084,"რავ":7085,"ესეიგი":7086,"##უმბ":7087,"rame":7088,"##ჭავ":7089,"პროვ":7090,"ჯონ":7091,"##itano":7092,"დადებითი":7093,"შეძლებს":7094,"##აკლ":7095,"პრობლემის":7096,"სამყაროს":7097,"ფორუმის":7098,"ემზარ":7099,"მამაკაცი":7100,"გაძლიერ":7101,"##ტრი":7102,"შესრულება":7103,"აწ":7104,"შარშან":7105,"ანალოგიური":7106,"ვადით":7107,"მხარდამჭერ":7108,"ყოფნა":7109,"გვითხ":7110,"გვიხ":7111,"რადიო":7112,"მიჰ":7113,"ცოლ":7114,"##მაურ":7115,"საფუძველი":7116,"აქტ":7117,"დამოუკიდებლობის":7118,"საფასური":7119,"დამიზუსტ":7120,"პატივის":7121,"თანხები":7122,"შიმში":7123,"მიღწ":7124,"მასში":7125,"შეუკ":7126,"მედია":7127,"აჭარის":7128,"სტატი":7129,"ითვალისწინებს":7130,"მიულოცა":7131,"მარშ":7132,"გრძელდება":7133,"ოდნ":7134,"იდგა":7135,"მეტოქ":7136,"წლით":7137,"ინტელექტ":7138,"პრაქტიკულად":7139,"ვუს":7140,"რეკლამ":7141,"გაწევ":7142,"##ვენი":7143,"##ამაყ":7144,"gushin":7145,"განაკვეთ":7146,"##იაქტიურ":7147,"##ნესი":7148,"ბანკომატის":7149,"სათან":7150,"##ებისაგან":7151,"დირექტორი":7152,"##იდეთ":7153,"მეთა":7154,"ცინ":7155,"სტატუსი":7156,"##არას":7157,"პატივს":7158,"სირცხვილი":7159,"კათ":7160,"##იდოს":7161,"##არტი":7162,"##უსით":7163,"დაადანაშაულა":7164,"##ლისა":7165,"ნომრით":7166,"##ებებისთვის":7167,"https":7168,"პრესკონ":7169,"აღებული":7170,"სადაა":7171,"შეზღუდვა":7172,"##ვედით":7173,"ვამოწმ":7174,"რაღ":7175,"##des":7176,"##ბილ":7177,"რაღაცას":7178,"საელჩ":7179,"პატიოს":7180,"სპორტის":7181,"##deg":7182,"წიგნ":7183,"dava":7184,"##ენდა":7185,"##ირე":7186,"აპრილს":7187,"გითხრათ":7188,"##ოთეკ":7189,"ეკუთვნის":7190,"მკურნალ":7191,"შეავსეთ":7192,"დაცული":7193,"##ვდა":7194,"გაკ":7195,"tanxas":7196,"გაგე":7197,"ნაბიჯი":7198,"ვიგ":7199,"##რიტიკ":7200,"##აციისა":7201,"საკრებულოს":7202,"ბიზნესის":7203,"##სამსახურ":7204,"მოხმარ":7205,"##გრძლი":7206,"მატჩში":7207,"რევოლუცი":7208,"bankomat":7209,"##ოლოგიის":7210,"მარეგულირებელი":7211,"##ახლა":7212,"გავხ":7213,"პოპულ":7214,"##ევია":7215,"მღვ":7216,"ორმა":7217,"დელეგ":7218,"ძალით":7219,"გადახდას":7220,"##ცემენ":7221,"##ევროპ":7222,"##ენზ":7223,"##ოდათ":7224,"aras":7225,"დიდად":7226,"საზოგადოებაში":7227,"რომელთაც":7228,"gadam":7229,"წითელი":7230,"უზრუნველყოფ":7231,"ძნელია":7232,"მიიღოთ":7233,"##ედის":7234,"მიღებას":7235,"შეიცვალა":7236,"ვარსკვლ":7237,"გადამოწმებას":7238,"საყ":7239,"სიცოცხლე":7240,"მყავს":7241,"ოჯახს":7242,"ძირითად":7243,"იოს":7244,"როლი":7245,"##პანიაში":7246,"შვიდ":7247,"მაღაზ":7248,"სანა":7249,"შენთვის":7250,"ერე":7251,"პს":7252,"ტუ":7253,"მოხსნას":7254,"დახმარებით":7255,"იშვიათ":7256,"gamo":7257,"შევდივარ":7258,"##jer":7259,"ხალხთან":7260,"ნაწილის":7261,"პარტნიორ":7262,"ითვლება":7263,"სიახ":7264,"მუშაობდა":7265,"მემგონი":7266,"წიგნი":7267,"##erx":7268,"ნათელია":7269,"თანამონაწილე":7270,"მისმა":7271,"განუკითხ":7272,"მოქმედებს":7273,"დარგ":7274,"მუქ":7275,"##აბეჭდილ":7276,"მაქსიმალურად":7277,"წულუკიანი":7278,"ბინა":7279,"##ment":7280,"##ვევას":7281,"##დისის":7282,"უკანონ":7283,"ნათქვამი":7284,"როდ":7285,"##პოსტ":7286,"დააზუსტ":7287,"ქეთ":7288,"##დივართ":7289,"##45":7290,"პირობით":7291,"გამოსავალი":7292,"##ნაირ":7293,"მაუწყ":7294,"ინტერპრესნიუსს":7295,"##ადაგ":7296,"რაგ":7297,"პორტ":7298,"სიაში":7299,"ჭეშმარიტ":7300,"დაპირისპირება":7301,"ჟვ":7302,"კარიერას":7303,"ბიურ":7304,"პროკურატურაში":7305,"შეერთებული":7306,"იბრძ":7307,"ღარიბ":7308,"გამოკვლ":7309,"შემოგთავაზ":7310,"სპეციალისტ":7311,"გითხრა":7312,"სიტყვის":7313,"##gen":7314,"შოთა":7315,"აღმაშენ":7316,"##ail":7317,"ვაშა":7318,"რომლითაც":7319,"განცხადებაში":7320,"ანდა":7321,"მოღვაწე":7322,"##ავების":7323,"##აზას":7324,"დასრულდა":7325,"ფოთ":7326,"უმცირესობების":7327,"##ხის":7328,"სტანდარტულ":7329,"ტრო":7330,"##ეგო":7331,"თავიანთ":7332,"##ტოლ":7333,"ადვილად":7334,"##ყვანას":7335,"mis":7336,"ამერიკული":7337,"ratom":7338,"ქალს":7339,"ფეისბ":7340,"##ვეტ":7341,"##ადასახ":7342,"this":7343,"მიიღეთ":7344,"ოლიმპიური":7345,"rato":7346,"##ვიზ":7347,"197":7348,"კურსი":7349,"აუნ":7350,"განათლებული":7351,"კობა":7352,"წარმატებული":7353,"მიქ":7354,"##მართველი":7355,"მარტივი":7356,"გაგვაჩნია":7357,"შპს":7358,"##რობიდან":7359,"თევ":7360,"ჩემპიონატ":7361,"##ებრივად":7362,"ინდ":7363,"მთავრობამ":7364,"მივიდა":7365,"სერია":7366,"##ესთან":7367,"უფლებამოს":7368,"ხელოვნ":7369,"##ისათვის":7370,"ბლიად":7371,"შეიარაღება":7372,"უცნობია":7373,"##ანამშრომ":7374,"avig":7375,"არან":7376,"##გინ":7377,"მეტრ":7378,"შენიშ":7379,"სენ":7380,"ხმის":7381,"საფრანგეთის":7382,"მხარი":7383,"ვხვდები":7384,"მეზობ":7385,"შეჩერ":7386,"დათბ":7387,"მისია":7388,"მიპასუხ":7389,"##იანს":7390,"გაზეთ":7391,"ჩაწერეთ":7392,"გულშემატკი":7393,"ლამაზ":7394,"ჯავახ":7395,"##ვალოთ":7396,"იდ":7397,"უარესი":7398,"ვეტ":7399,"მოუწევს":7400,"შუალედური":7401,"შეწყ":7402,"ფეხბურთის":7403,"განაგრძო":7404,"ოთახ":7405,"ადგილობრივ":7406,"გივი":7407,"მოედანზე":7408,"##ებლების":7409,"შრომის":7410,"გამოსვლა":7411,"რათქმა":7412,"წუხ":7413,"ნაჩ":7414,"##იმეორებ":7415,"განუკითხა":7416,"გათანაბ":7417,"ვიფიქ":7418,"სუვერენიტეტის":7419,"##ქსი":7420,"კითხვას":7421,"ბუნებრივი":7422,"შემდეგაც":7423,"ჟოზე":7424,"ტეხ":7425,"დაგიფიქსირ":7426,"##ყრობ":7427,"ეთერში":7428,"##აკლებ":7429,"ჯორჯ":7430,"შევეგუ":7431,"##პარეზ":7432,"მოქმედების":7433,"##ert":7434,"მჭირდება":7435,"ბავშვებს":7436,"გპირ":7437,"მუდმივად":7438,"##დევს":7439,"ბალანს":7440,"##ericx":7441,"კენჭ":7442,"##uleb":7443,"ჩემთან":7444,"ახალწ":7445,"##gistr":7446,"ეტო":7447,"დანაშაულის":7448,"გილოცავთ":7449,"პიროვნება":7450,"აღდგენას":7451,"სჯ":7452,"##ყარა":7453,"გერმანიის":7454,"გვირ":7455,"ვცდილ":7456,"განათლება":7457,"შეავსოთ":7458,"მეურნეობის":7459,"##gin":7460,"დასაბუთებული":7461,"##დრისის":7462,"ყველაფრისთვის":7463,"ლარამდე":7464,"ტურისტ":7465,"ჯო":7466,"##აქართველ":7467,"შემდგომში":7468,"გინდ":7469,"ამგვარ":7470,"გზის":7471,"დასავლეთ":7472,"შეიძლებოდა":7473,"##ათავ":7474,"უსაფრთხო":7475,"##მანია":7476,"ნაკრებში":7477,"##ებასა":7478,"##ფინ":7479,"ქუჩაზე":7480,"აჩ":7481,"გადახდილი":7482,"დროში":7483,"ადასტურ":7484,"0322":7485,"რესტორ":7486,"##უალურ":7487,"ეკონომიკისა":7488,"ცის":7489,"##ხოვ":7490,"დინამოს":7491,"გადმომ":7492,"კამპანიაში":7493,"##ase":7494,"შთაბეჭდილ":7495,"გადაი":7496,"კლინიკ":7497,"წესრიგ":7498,"ნაციონალებმა":7499,"მოითხოვება":7500,"არასწორი":7501,"ამბავია":7502,"##ატო":7503,"##სის":7504,"ახლო":7505,"gadm":7506,"##ალეთ":7507,"ხელით":7508,"შემოტ":7509,"ახსენ":7510,"მითხრეს":7511,"##ვაა":7512,"მორიგი":7513,"##ome":7514,"გამოიხატება":7515,"ვითარება":7516,"##პატიმ":7517,"ტელეკომპ":7518,"იტყვიან":7519,"##ორდინ":7520,"##ანდელი":7521,"აწი":7522,"##ართან":7523,"shec":7524,"მოქმედი":7525,"გამოდ":7526,"სატრანსფერო":7527,"მოუწოდ":7528,"strong":7529,"გამართლ":7530,"##ishvili":7531,"##ემოკრატიული":7532,"განცხადებას":7533,"##იაო":7534,"პირობებს":7535,"##ავამ":7536,"2004":7537,"ჩატარებული":7538,"ტენდენცია":7539,"anab":7540,"##ერზე":7541,"##ელთან":7542,"damexmarot":7543,"რაღაცა":7544,"ავრცელებს":7545,"რკინიგ":7546,"ხაზზე":7547,"გამთლიან":7548,"მეტრო":7549,"სწრაფი":7550,"##როტესტ":7551,"##ess":7552,"proble":7553,"##რაქტ":7554,"##იქტ":7555,"ps":7556,"tkv":7557,"##all":7558,"##ესალმებით":7559,"davre":7560,"##ეცნიერ":7561,"gaket":7562,"##აქო":7563,"##ზავნება":7564,"ლი":7565,"წასვლა":7566,"შეიარაღებული":7567,"##წერო":7568,"მოჰყვა":7569,"შესვლა":7570,"დაჟე":7571,"თიბისი":7572,"უკანასკნელის":7573,"ფედერაციის":7574,"##სჯელ":7575,"ageba":7576,"წულუკიანის":7577,"თქო":7578,"მომხდ":7579,"##acx":7580,"##ებზეც":7581,"სამინისტროში":7582,"შეიტან":7583,"angarishis":7584,"ბიზნესი":7585,"bankit":7586,"გადარიცხვას":7587,"ზრუნ":7588,"##ნობს":7589,"წვ":7590,"ხანდახან":7591,"მეტია":7592,"##თავად":7593,"ragac":7594,"romeli":7595,"სერვისი":7596,"რწმენა":7597,"tv":7598,"მარტს":7599,"გერიცხ":7600,"ese":7601,"რობ":7602,"##rdeba":7603,"გოგი":7604,"##ოვე":7605,"ადრესატს":7606,"##თხოვენ":7607,"თეონა":7608,"##დებოდეს":7609,"მდგომარეობის":7610,"ახერხ":7611,"##ონას":7612,"parol":7613,"##ფარ":7614,"კონტროლი":7615,"ბიუჯეტ":7616,"მიზეზით":7617,"2018":7618,"##ოგრაფ":7619,"საგარეჯოს":7620,"წუთის":7621,"ზუსტი":7622,"შევიტან":7623,"ამგვარი":7624,"გააგ":7625,"##che":7626,"მანდა":7627,"მწვრთნელად":7628,"##ჩემ":7629,"ოცნებას":7630,"უბედ":7631,"##ცემთ":7632,"თემურ":7633,"ხიდაშელის":7634,"ოპოზიციონ":7635,"პარამეტ":7636,"დათო":7637,"გვიხარია":7638,"გათავისუფლდა":7639,"ნაცმო":7640,"მხარის":7641,"ქალაქი":7642,"ქულები":7643,"ათი":7644,"სიცოცხლის":7645,"ჰომ":7646,"მაურინი":7647,"გავს":7648,"##არჯიშ":7649,"სულის":7650,"თითოეული":7651,"სახლ":7652,"##ug":7653,"##უმში":7654,"იყავი":7655,"მსაჯ":7656,"მოგესალმებით":7657,"შეკვეთ":7658,"ვითანამშრომ":7659,"დანიშ":7660,"შემთხვევის":7661,"უფასოდ":7662,"ოპოზიციური":7663,"ფანტ":7664,"აიღო":7665,"რესპუბლიკელი":7666,"გამოცდილება":7667,"დგამს":7668,"სირი":7669,"ქულების":7670,"დაგან":7671,"სწრაფად":7672,"##არგა":7673,"ჩერ":7674,"შეადგენს":7675,"უი":7676,"დანგრევის":7677,"##აკენ":7678,"მიჩვენებს":7679,"##აციამ":7680,"მეგობრ":7681,"ცვლილებები":7682,"##ცდა":7683,"##უან":7684,"სამინისტრ":7685,"ვიყავით":7686,"##წრფ":7687,"მონიტორ":7688,"##ვეულმა":7689,"dag":7690,"##ყვანი":7691,"##არიანი":7692,"kid":7693,"საგადასახ":7694,"##უძნ":7695,"გავრცელებული":7696,"მაშინვე":7697,"მოსკოვის":7698,"##ედია":7699,"იმენა":7700,"##ელებთან":7701,"##პრესი":7702,"ავსტრ":7703,"##ცენტო":7704,"წუთი":7705,"##იხარ":7706,"გადაამოწმეთ":7707,"გართ":7708,"chems":7709,"კატასტრო":7710,"ზარ":7711,"##24":7712,"33":7713,"სრულდება":7714,"დაქ":7715,"##დგარი":7716,"საკითხია":7717,"რეგულ":7718,"ბინ":7719,"##ოროს":7720,"პენსი":7721,"ნწ":7722,"ბრძოლაში":7723,"ბიჭები":7724,"ნიკოლო":7725,"იდიოტ":7726,"ხელმძღვანელობით":7727,"მოსაზრებების":7728,"უკრაინაში":7729,"სხვისი":7730,"ღლე":7731,"##rdquo":7732,"ვარო":7733,"ჩამოთ":7734,"ნელნელა":7735,"##ჩით":7736,"წარმოდგენილი":7737,"##sn":7738,"##ვლია":7739,"##მდებ":7740,"გპირდებით":7741,"იფიქროთ":7742,"კომპრომისი":7743,"##აფას":7744,"gadaxda":7745,"ბრწყინ":7746,"do":7747,"##up":7748,"ვმუშა":7749,"##ავრცელ":7750,"წაკითხ":7751,"წარმოადგენ":7752,"უსაფრთხოება":7753,"პატიმრობიდან":7754,"შეიკ":7755,"##tion":7756,"დანაშაულთან":7757,"სამუშაოები":7758,"საბჭო":7759,"##eria":7760,"კომენტარი":7761,"your":7762,"განხილვა":7763,"მოლაპარაკებები":7764,"ukve":7765,"მმართველი":7766,"საფეხ":7767,"ავტონომ":7768,"ეთმობა":7769,"##ევმა":7770,"მკიდია":7771,"სააგენტოს":7772,"ექსპერტ":7773,"ძნელი":7774,"მიიღოს":7775,"გადასამოწმ":7776,"აქც":7777,"მილიარდი":7778,"რაკურს":7779,"ცუდია":7780,"დარტყ":7781,"არსებობდა":7782,"##ანიის":7783,"მიკვირ":7784,"რედა":7785,"პრემიერმინისტრობის":7786,"##იში":7787,"შევც":7788,"გზავნილის":7789,"აღვადგინოთ":7790,"სადაზღვევ":7791,"araa":7792,"##ca":7793,"##წყობს":7794,"არჩევანი":7795,"რიცხვი":7796,"gadaricxva":7797,"შემომწირ":7798,"შესთავაზოს":7799,"ამაღ":7800,"##ებებისა":7801,"##ორუს":7802,"ჩემზე":7803,"საკონსტიტუცი":7804,"მღებრი":7805,"საქართველოდან":7806,"პარალელურად":7807,"დახმარებას":7808,"გაცემის":7809,"ექსპ":7810,"##ამსხმ":7811,"iqneba":7812,"##ck":7813,"##ბარ":7814,"ადამიანმა":7815,"გავქვს":7816,"maxs":7817,"მონაცემებს":7818,"იარ":7819,"##ველა":7820,"დაამტკიც":7821,"გრძნობთ":7822,"გამოსწორ":7823,"გავაკეთე":7824,"პუტინი":7825,"ნორმალურ":7826,"დაახლოება":7827,"გაირკ":7828,"##ურობა":7829,"რუტ":7830,"ვაჟა":7831,"ისლამ":7832,"მისამართის":7833,"##ებაცაა":7834,"გააქტიურება":7835,"ლეგი":7836,"ცოლი":7837,"მეოთხე":7838,"დაის":7839,"ჟურნალისტი":7840,"დამოუკიდებლობას":7841,"2013":7842,"განვადების":7843,"შეუშ":7844,"##ექი":7845,"მივმართ":7846,"გიორგაძეს":7847,"##ჭირდა":7848,"შემა":7849,"eqspres":7850,"##ურების":7851,"ბას":7852,"mushaob":7853,"საეჭ":7854,"იგივეს":7855,"შეკვეთა":7856,"თათ":7857,"არასრულ":7858,"დასაც":7859,"გაუმჯობეს":7860,"ჯგუფები":7861,"##uq":7862,"xdeba":7863,"##რიკ":7864,"გიგლა":7865,"თარგამ":7866,"დაგვე":7867,"თამამი":7868,"მოხერხ":7869,"შესწირა":7870,"საქონ":7871,"2019":7872,"ინც":7873,"კანონით":7874,"##ლას":7875,"##van":7876,"ფაქტები":7877,"აბაში":7878,"უმაღლეს":7879,"ღმერთი":7880,"ფონდის":7881,"თავდამსხმ":7882,"ბაჩ":7883,"აღსანიშნავია":7884,"დინამ":7885,"ისა":7886,"ლომ":7887,"დამოკიდებულ":7888,"გათვალისწინებული":7889,"exspres":7890,"rac":7891,"კონცენტრ":7892,"გასამართლებული":7893,"ტვინი":7894,"გარანტი":7895,"romel":7896,"სხვამ":7897,"გადახედ":7898,"ii":7899,"გააძლიეროს":7900,"შელახვა":7901,"##tiur":7902,"სამუელ":7903,"##itane":7904,"მნიშვნელოვან":7905,"ანგარიშებს":7906,"##ონენტ":7907,"მარტივად":7908,"კამერ":7909,"##ჭერენ":7910,"##ვევაში":7911,"გვან":7912,"ბენდ":7913,"ბუშ":7914,"მიეც":7915,"იანვარს":7916,"თორნიკ":7917,"ვქნა":7918,"დაჭ":7919,"სარგებლობა":7920,"##მოყვარე":7921,"ზრდა":7922,"ზის":7923,"გამზ":7924,"##ნოთ":7925,"მინუსში":7926,"ნოდარ":7927,"სატრანსპორტო":7928,"##ანზ":7929,"გაგრძელდება":7930,"გავცეთ":7931,"ტრაგ":7932,"##ეე":7933,"სუნ":7934,"პრობლემას":7935,"36":7936,"ყოველთვიური":7937,"ირან":7938,"##უხს":7939,"ნაცნობ":7940,"ვინაა":7941,"ფრაქ":7942,"ვარაუდ":7943,"ფორმატს":7944,"ალავიძე":7945,"ბიზნესმენ":7946,"##ნან":7947,"##ცველი":7948,"##ოპერ":7949,"დიქტ":7950,"გაუცია":7951,"ვალდებულება":7952,"##კვ":7953,"yvel":7954,"მოინ":7955,"##ლობას":7956,"student":7957,"გუნდში":7958,"##ავო":7959,"ვამ":7960,"გულწრფ":7961,"ტყუილში":7962,"ზოგჯერ":7963,"შექმნისა":7964,"ბრუნ":7965,"წერეთ":7966,"გადაჭ":7967,"ras":7968,"##ip":7969,"##ემატება":7970,"ლარით":7971,"დიდხანს":7972,"##მენი":7973,"ldquo":7974,"##ძღ":7975,"გეტყვი":7976,"წარდგენისას":7977,"##იშვილს":7978,"გამოუშ":7979,"რამდენია":7980,"ჩვეულებრივ":7981,"გადმოტ":7982,"მიბმულია":7983,"ბიან":7984,"კითხვაზე":7985,"##ანები":7986,"ნაწარმო":7987,"შედი":7988,"ბაზარზე":7989,"გაეხსნათ":7990,"მოწოდებებს":7991,"##ჩნდეს":7992,"ფიქრობთ":7993,"ამბოხის":7994,"##რისა":7995,"შიგნით":7996,"##ებასაც":7997,"სამმართველ":7998,"##ულაშვილის":7999,"##აციიდან":8000,"გასამხედრო":8001,"ნაწილობრივ":8002,"##არებენ":8003,"pay":8004,"ბედი":8005,"##ახალ":8006,"განკუთვნ":8007,"ქუთაისში":8008,"სადაზღვევო":8009,"ეხებიან":8010,"დამეხმაროთ":8011,"ხალხია":8012,"ამოღ":8013,"ინტეგრ":8014,"##არომ":8015,"ganacx":8016,"აუცილებლობა":8017,"დავინახ":8018,"პუნქტ":8019,"სერიოზულ":8020,"სათქმ":8021,"პლიუს":8022,"მშობ":8023,"##ატარა":8024,"რეჟის":8025,"შეაქო":8026,"ქალბატონი":8027,"ხვდება":8028,"თეატ":8029,"##ურში":8030,"##ჩინ":8031,"რეჟიმის":8032,"აფხაზებსა":8033,"ალავიძემ":8034,"პარიზ":8035,"მდგომარეობდა":8036,"##igo":8037,"ელექტროენერ":8038,"დადის":8039,"მოწმობების":8040,"სამეცნიერ":8041,"გეც":8042,"კონფლიქტი":8043,"თქვი":8044,"იმერ":8045,"მისახ":8046,"##რავი":8047,"##ერთა":8048,"წამოიწია":8049,"საბუთ":8050,"ლოკ":8051,"შეინ":8052,"კანონპროექტ":8053,"ფესტი":8054,"ებრძ":8055,"ვითანამშრომლოთ":8056,"მოტ":8057,"გათანაბრებული":8058,"საიტი":8059,"37":8060,"ლტოლ":8061,"დიჯ":8062,"ტერიტორიებთან":8063,"ლონდ":8064,"კვირა":8065,"ცდილობენ":8066,"ერთია":8067,"ვიხმაროთ":8068,"##ოლოგია":8069,"კომპრომის":8070,"ტყუილი":8071,"დუ":8072,"##ყალბ":8073,"პაულო":8074,"##ტაჟ":8075,"დემა":8076,"უმუშევ":8077,"ყოველივე":8078,"შვე":8079,"ადგილს":8080,"##ურთხ":8081,"აღდგენის":8082,"##ანძღ":8083,"თორნიკე":8084,"##ყოს":8085,"მოხვდებით":8086,"ვაჟკაც":8087,"ფორლ":8088,"ახალწვეულმა":8089,"მინისტრებთან":8090,"კიბ":8091,"##gi":8092,"are":8093,"მოიქეცით":8094,"##ტე":8095,"შევეგუებით":8096,"კახიშვილი":8097,"გასამხედროებული":8098,"##ირავ":8099,"მარს":8100,"ეხლ":8101,"##ებიანი":8102,"##ექცი":8103,"აუნთო":8104,"ჩვენმა":8105,"ზოგს":8106,"გრი":8107,"მკვლ":8108,"ყურადღებას":8109,"ase":8110,"##ოლში":8111,"ოქტომბერს":8112,"ბიანკონ":8113,"წახ":8114,"##იკეთ":8115,"ასაკ":8116,"განიცდის":8117,"განუკითხაობაა":8118,"##ვეწოთ":8119,"##ქვით":8120,"ხელშე":8121,"##ითხოვ":8122,"shemdeg":8123,"##27":8124,"##ალიჩ":8125,"gavaketo":8126,"საკონტაქტო":8127,"შეურაცხყოფ":8128,"იანვრის":8129,"პოსტს":8130,"დაგეგმილი":8131,"გულშემატკივრ":8132,"##ეჰ":8133,"##მიმ":8134,"შეიყვან":8135,"რამაც":8136,"პედა":8137,"ჩემმა":8138,"შევიდა":8139,"ჩათვლით":8140,"ბათუმის":8141,"წამოწია":8142,"სამეგრელ":8143,"იკითხ":8144,"ფურც":8145,"მოის":8146,"ტვინ":8147,"ვებგვერდ":8148,"ქართველმა":8149,"აწარმო":8150,"##uss":8151,"georgia":8152,"ლიც":8153,"ინსტიტუციები":8154,"საკონსტიტუციო":8155,"##ვენტ":8156,"en":8157,"კვლევ":8158,"გოლ":8159,"დეტალები":8160,"##უმან":8161,"მოუს":8162,"ბარი":8163,"ძმები":8164,"აეროპორტში":8165,"დათბობას":8166,"საწვ":8167,"ფორმით":8168,"##აციონალური":8169,"##ars":8170,"დამსახურებაცაა":8171,"##კომ":8172,"კომერ":8173,"##ანქ":8174,"ამხ":8175,"სუპ":8176,"##ევად":8177,"ვიზიტი":8178,"ანაბარზე":8179,"რეაქცია":8180,"##უბრ":8181,"მოპოვებით":8182,"მარაზ":8183,"დაიცავთ":8184,"##უქმებინათ":8185,"შეხვდა":8186,"გუნდს":8187,"ღილაკს":8188,"ეკონომიკა":8189,"აჭარა":8190,"ჩამონათ":8191,"დაფიქსირდა":8192,"##ათის":8193,"##წმინ":8194,"მღებრიშვილმა":8195,"მოკლე":8196,"ვიმყოფებოდით":8197,"გერიცხებათ":8198,"ოსებსა":8199,"იმპერი":8200,"რათქმაუნდა":8201,"##vla":8202,"ოდნავ":8203,"წყალობით":8204,"ჩრდილოეთ":8205,"მოიგო":8206,"მენ":8207,"##თვ":8208,"დაიბადა":8209,"სიებთან":8210,"ამერიკელი":8211,"გეგმისა":8212,"გაზი":8213,"##ახელმწიფო":8214,"ციფრი":8215,"##rit":8216,"ინტერესების":8217,"##ჯდა":8218,"ანალი":8219,"##eti":8220,"კანონმდებლობაც":8221,"მოვახ":8222,"კორონავირუსის":8223,"რაკურსში":8224,"##გიზ":8225,"საუბრისას":8226,"12წლიანი":8227,"დავხვეწოთ":8228,"მიზან":8229,"ელჩ":8230,"ფუნქცია":8231,"##ექმ":8232,"ოჯახში":8233,"ინსტიტუტის":8234,"aparat":8235,"##უთუ":8236,"შემომწირველი":8237,"დეკემბერს":8238,"##ყვანს":8239,"დროსაც":8240,"რაიმეს":8241,"ნაბიჯებისა":8242,"ტიტ":8243,"##ebshi":8244,"ბენზ":8245,"წარმოუდგ":8246,"გათამაშ":8247,"გასწორ":8248,"ძეგლისთვის":8249,"from":8250,"ფონდ":8251,"ილაპარაკ":8252,"პროცედურ":8253,"საიდუმლო":8254,"წინასა":8255,"კიბერდანაშაულის":8256,"##lain":8257,"კუნ":8258,"მყ":8259,"რესპუბლიკელის":8260,"გაუქმებისკენ":8261,"გაბრ":8262,"##პინძლ":8263,"##რმ":8264,"მეგობრები":8265,"##გს":8266,"##ჩნიათ":8267,"ძალზე":8268,"ქვეყნები":8269,"რუტინის":8270,"ქუთაისის":8271,"kidev":8272,"##ამოწ":8273,"ბრალდებებისთვის":8274,"აგულაშვილის":8275,"##ყავი":8276,"გამთლიანებისკენ":8277,"ჟან":8278,"ისხდეთ":8279,"ემოცი":8280,"გაგეუქმებინათ":8281,"გააკეთებს":8282,"კიბერდანაშაულს":8283,"დაიღუპა":8284,"##მინე":8285,"michvenebs":8286,"საყრდისის":8287,"mx":8288,"ვუყურებ":8289,"დაგანებეს":8290,"ნათელ":8291,"საყრდრისის":8292,"კიბერდანაშაულიც":8293,"თვალები":8294,"##ვინო":8295,"შეგროვ":8296,"პაატა":8297,"##ცენ":8298,"ტოლ":8299,"სიკეთ":8300,"tqveni":8301,"აღმოსავლეთ":8302,"ლეიბ":8303,"დილის":8304,"მიკვირს":8305,"იმედის":8306,"##უკი":8307,"პოტენციური":8308,"##ალად":8309,"##ენად":8310,"წასული":8311,"შეხვედრას":8312,"არჩევნებს":8313,"თამაზ":8314,"დერ":8315,"კეთილდღეობის":8316,"გახლდათ":8317,"ეტაპის":8318,"ბიუჯეტი":8319,"ჩემპიონატის":8320,"##evs":8321,"მშვიდობიანი":8322,"გატარება":8323,"ვიტ":8324,"##დოთ":8325,"ნაღდად":8326,"##იმის":8327,"პირები":8328,"პროცესის":8329,"უმეტესობა":8330,"##aw":8331,"ვაში":8332,"საყვარელი":8333,"იღებენ":8334,"dge":8335,"პროცესია":8336,"##აოს":8337,"ok":8338,"ტაში":8339,"გადმოს":8340,"##ტოვ":8341,"დიმიტრი":8342,"arc":8343,"##xmareb":8344,"პიროვნ":8345,"აუტ":8346,"ინციდ":8347,"ვეთანხმები":8348,"##ht":8349,"ჩატარდა":8350,"ლივ":8351,"ანგარიშების":8352,"სამშვიდობო":8353,"dar":8354,"angarishi":8355,"##გორ":8356,"კანდიდატურ":8357,"ბაქრა":8358,"კორე":8359,"უქ":8360,"შტურ":8361,"ინტერვიუ":8362,"განყოფილებაში":8363,"ქეთი":8364,"ვერსი":8365,"გერმანიაში":8366,"გაქცევა":8367,"he":8368,"სოფელში":8369,"ალბათობით":8370,"მსგავსად":8371,"რომა":8372,"გრძნობ":8373,"თქვას":8374,"იმუშავ":8375,"მოვიქც":8376,"ცხელი":8377,"##ღე":8378,"გაზრდა":8379,"##ატორის":8380,"გეოგრაფი":8381,"საათიდან":8382,"პონტში":8383,"გამოძიების":8384,"ჩამოიჭ":8385,"ნახევარ":8386,"##ლენ":8387,"##ურით":8388,"საათში":8389,"სიუჟ":8390,"ივნისს":8391,"##ირო":8392,"ცხვირ":8393,"აშკარა":8394,"სავსე":8395,"ab":8396,"ნუთუ":8397,"jer":8398,"შესაფერი":8399,"ვაა":8400,"##44":8401,"##ლზე":8402,"##ერთიანებს":8403,"დაწერე":8404,"##iti":8405,"##ახტ":8406,"ხანს":8407,"##ველო":8408,"გამონაკლის":8409,"დამავიწყდა":8410,"გამახსენდა":8411,"დააგ":8412,"##ხვა":8413,"com":8414,"ოფიციალურ":8415,"##ამაღ":8416,"დაბადების":8417,"ექნებათ":8418,"აღმას":8419,"მჭ":8420,"##დაი":8421,"სტრატეგიული":8422,"mainc":8423,"მაქსიმალური":8424,"მოულოდ":8425,"შეთანხმება":8426,"სამარცხ":8427,"maxsovs":8428,"გამარჯვება":8429,"სამართლიანი":8430,"პატივცემ":8431,"ჩხუბ":8432,"სრულყოფილ":8433,"##dan":8434,"##ილოს":8435,"უყვარს":8436,"გადაკ":8437,"ვწუხ":8438,"ირანის":8439,"კადრები":8440,"დავკარგ":8441,"ზღვის":8442,"მასშტაბით":8443,"##ფორმა":8444,"მცხოვრები":8445,"2005":8446,"გავაკეთო":8447,"მინახავს":8448,"##ამტ":8449,"გონი":8450,"##eshi":8451,"ak":8452,"მოიშ":8453,"კაპიტალის":8454,"საშინელი":8455,"##აროა":8456,"##ყოფილება":8457,"##ისას":8458,"##ყრდნ":8459,"კონტრაქტ":8460,"##აზროვნ":8461,"##ast":8462,"საწყისი":8463,"##როდ":8464,"მომენტში":8465,"##ost":8466,"მოახდინ":8467,"##irek":8468,"გენი":8469,"გადად":8470,"პატრულ":8471,"ფორუმი":8472,"##ჭერი":8473,"მერიის":8474,"ფილმი":8475,"##ატე":8476,"##არატი":8477,"დადგა":8478,"ბოღ":8479,"თავისთავად":8480,"ფინანსთა":8481,"ბიჭო":8482,"tqventan":8483,"იას":8484,"საშინელ":8485,"თავიდანვე":8486,"გაჭირვ":8487,"ვერას":8488,"გაურკვე":8489,"უმძიმ":8490,"საწარმო":8491,"##ინტერესებდა":8492,"ანგარიშები":8493,"ხსნა":8494,"ეკის":8495,"გაჩეჩ":8496,"მოქ":8497,"##ნიდან":8498,"##თაშორის":8499,"ბავშვს":8500,"კონტრ":8501,"უკიდ":8502,"აფას":8503,"საგადასახადო":8504,"sp":8505,"საკითხებში":8506,"უკანა":8507,"მაგრა":8508,"სურვილ":8509,"##ინებენ":8510,"##აჩაღ":8511,"დიჯიპ":8512,"ჩი":8513,"რუსთაველის":8514,"იმსახურ":8515,"ფუნ":8516,"032":8517,"პროსტა":8518,"წარმოდგენა":8519,"მეტროს":8520,"სექტემბერს":8521,"საპროცენტო":8522,"ევროკავშირ":8523,"##ურობის":8524,"მატარ":8525,"ამდენ":8526,"##ოზი":8527,"პრინციპში":8528,"გამორიცხული":8529,"##რთან":8530,"განხილული":8531,"მეფის":8532,"##23":8533,"სკოლა":8534,"##ორთან":8535,"მზე":8536,"gamot":8537,"რეიტინგ":8538,"##far":8539,"მეკ":8540,"წინასწარმეტყველ":8541,"ვაშინგ":8542,"წინასწარი":8543,"დღით":8544,"##ლარ":8545,"უმჯობ":8546,"ჭკვიანი":8547,"სახეზე":8548,"გამოსვლის":8549,"##წრაფ":8550,"სია":8551,"შეცვლის":8552,"ეჭვ":8553,"წადი":8554,"ზელ":8555,"ხედავთ":8556,"თებერვალს":8557,"sw":8558,"მოჭ":8559,"მორალი":8560,"მერს":8561,"shemtx":8562,"##ესპ":8563,"დაუმორჩილ":8564,"მეფე":8565,"##ურიც":8566,"აყენ":8567,"ბიბლი":8568,"იუმ":8569,"დღესვე":8570,"nomerze":8571,"უეჭ":8572,"ამოიღ":8573,"##თქმ":8574,"შვეიც":8575,"ლაზ":8576,"##ეულის":8577,"წინსწ":8578,"დაგიმტკიც":8579,"სავალდებულ":8580,"75":8581,"იმან":8582,"ზედა":8583,"##ამას":8584,"მანი":8585,"მუზე":8586,"##იუტერ":8587,"ბიჯო":8588,"წაი":8589,"ეკონომიკურ":8590,"ნახევარმ":8591,"ანაზღა":8592,"უმნიშვნელ":8593,"დავიჯერ":8594,"განმარტებით":8595,"იწ":8596,"ემი":8597,"დოზით":8598,"##ებმაც":8599,"მიში":8600,"დაუთმ":8601,"ვრცელ":8602,"##იზა":8603,"ფაბ":8604,"##ოლოგიურ":8605,"ამბობდა":8606,"მიუტ":8607,"dol":8608,"გლობალურ":8609,"შემოსავლის":8610,"აცნობ":8611,"ქალთა":8612,"ვიზიტ":8613,"##ულით":8614,"კომპიუტერ":8615,"პრობლემების":8616,"##ვრა":8617,"საათებში":8618,"თანამშრომლობის":8619,"##utit":8620,"ეპოქ":8621,"უსამართლ":8622,"ვერსია":8623,"დახვ":8624,"ქეთევან":8625,"##ვიპ":8626,"##უნდ":8627,"მანანა":8628,"აკონტრო":8629,"გააც":8630,"რეგისტრაციის":8631,"იქცა":8632,"კოდექსის":8633,"რამდენადაც":8634,"##ელიას":8635,"ლუკ":8636,"##ვიძ":8637,"##out":8638,"უაზრო":8639,"შერჩ":8640,"##მენტ":8641,"რაოდენობის":8642,"დავუ":8643,"##vl":8644,"განის":8645,"ირჩევს":8646,"##როვნება":8647,"inf":8648,"##ვალო":8649,"მუსიკ":8650,"##თანაც":8651,"არაად":8652,"##ვიწყ":8653,"##ერე":8654,"##ონსტრ":8655,"მეზობლ":8656,"ლინკ":8657,"##ang":8658,"##ina":8659,"განვადება":8660,"##ado":8661,"რბ":8662,"##დებოდნენ":8663,"ლევ":8664,"მოთხოვნ":8665,"##ეობა":8666,"ქონება":8667,"ისეთივე":8668,"ისწავლ":8669,"შეიცვლება":8670,"##ანაცვლება":8671,"სანაცვლ":8672,"procenti":8673,"გააპ":8674,"##არიან":8675,"##ვრული":8676,"ბარათები":8677,"##ესრიგ":8678,"##იტანს":8679,"პერიოდის":8680,"წვი":8681,"გამყარ":8682,"შეამ":8683,"##ათე":8684,"##მახ":8685,"##ilia":8686,"##პექტ":8687,"##georgia":8688,"მსხ":8689,"სამართლებრივი":8690,"##უდის":8691,"გგონიათ":8692,"იყავით":8693,"39":8694,"##gon":8695,"##sax":8696,"საუბრობს":8697,"პრიორიტეტ":8698,"თაობა":8699,"ჯანმრთელობის":8700,"პირობა":8701,"pirad":8702,"გააკ":8703,"ნიკოლოზ":8704,"iq":8705,"##ველმა":8706,"გადაიღო":8707,"##to":8708,"ლიმიტის":8709,"ღილაკი":8710,"##გზავნით":8711,"##ფა":8712,"მწვრთნელ":8713,"სიძლიერ":8714,"##te":8715,"ჩეხ":8716,"დასრულების":8717,"სააგენტო":8718,"ძმაო":8719,"დამს":8720,"##წავ":8721,"გაანაღ":8722,"მწვრთნელი":8723,"ახლავე":8724,"გადაწყვიტა":8725,"მედიანი":8726,"დაიშ":8727,"კონსოლიდ":8728,"საკითხებზე":8729,"gada":8730,"უპირველ":8731,"კონვერტ":8732,"ფილმ":8733,"ვლადიმერ":8734,"ფრთ":8735,"კავკასიის":8736,"უნივერსალურ":8737,"##იად":8738,"ხედავს":8739,"პირველივე":8740,"სათავეში":8741,"ჭავ":8742,"ოთარ":8743,"##ate":8744,"##26":8745,"ჯვარ":8746,"ბუ":8747,"დაჭერ":8748,"ჩანაწერ":8749,"##riv":8750,"მეორეც":8751,"##aris":8752,"##ორთ":8753,"კომუნიკ":8754,"შეეძლო":8755,"ბავშვების":8756,"##ასწა":8757,"მშვენი":8758,"გაიაქტიურ":8759,"თვალით":8760,"რიცხავთ":8761,"დაეხმარ":8762,"ამბები":8763,"##ვიდეთ":8764,"მონაკვეთ":8765,"##ვიდან":8766,"ქართულად":8767,"კობახი":8768,"უთქვამს":8769,"ელიტის":8770,"მეტის":8771,"se":8772,"მიიღებენ":8773,"ქალებს":8774,"sakredit":8775,"sakom":8776,"საუბარია":8777,"გაიქ":8778,"ვიპ":8779,"##უმს":8780,"პრესკონფერენცია":8781,"რეიტინგი":8782,"##ინათ":8783,"შეკ":8784,"##იძე":8785,"ჩელს":8786,"სავალალო":8787,"##ლივ":8788,"##აქც":8789,"კილომეტ":8790,"აწყობს":8791,"სოფო":8792,"დროისთვის":8793,"გასწვ":8794,"დაჯდა":8795,"ნამეტ":8796,"შენობაში":8797,"##ain":8798,"დიალოგ":8799,"##უბნ":8800,"##ხსენებული":8801,"ცეკ":8802,"##ვარე":8803,"ვალუტაში":8804,"მესამ":8805,"ცრემ":8806,"დასამ":8807,"57":8808,"ნეიტრ":8809,"სისტემაში":8810,"შემოსავლების":8811,"cont":8812,"##ებულიყო":8813,"საქმიანობის":8814,"##ოქმედ":8815,"ორს":8816,"დააყენ":8817,"##ity":8818,"##imtkic":8819,"უნდ":8820,"ტკი":8821,"კუკ":8822,"ფილიერს":8823,"##ძლევს":8824,"account":8825,"სანაცვლოდ":8826,"გიგი":8827,"##efon":8828,"მშენებლობის":8829,"ტომ":8830,"bankidan":8831,"vix":8832,"რევოლუციის":8833,"მდგომი":8834,"შესაძლო":8835,"##აბლო":8836,"ცნობა":8837,"გენერალურ":8838,"##ებიცაა":8839,"პოლიტიკოსი":8840,"ეკრანზე":8841,"მდე":8842,"მოსახ":8843,"##ავდეს":8844,"##ენციის":8845,"მივე":8846,"##raf":8847,"##avshird":8848,"##უქრება":8849,"მობილი":8850,"##ეებში":8851,"გლეხ":8852,"ტირ":8853,"ub":8854,"დაბლოკილი":8855,"დახარჯ":8856,"წოდ":8857,"##rul":8858,"მობრძანდით":8859,"ტარდება":8860,"კოტ":8861,"##ნს":8862,"##ველას":8863,"პრევენ":8864,"##ვალეთ":8865,"მიმღების":8866,"##აჟი":8867,"განსახ":8868,"ქუჩის":8869,"მედიის":8870,"##ესხ":8871,"ფეხზე":8872,"ავა":8873,"##ნობა":8874,"##ვამენ":8875,"იჭ":8876,"არაერთხელ":8877,"ser":8878,"##ილაძე":8879,"აერთიანებს":8880,"##კვევა":8881,"ძალები":8882,"ყოფნის":8883,"ცხოვრებას":8884,"სასაცილ":8885,"ომს":8886,"გამყრ":8887,"თავმჯდომარემ":8888,"იღებთ":8889,"##ობითი":8890,"იყიდა":8891,"##აია":8892,"##ბო":8893,"სხვათაშორის":8894,"ვეტერ":8895,"ასაკში":8896,"გააჩ":8897,"##უტო":8898,"##ატანი":8899,"მიჩ":8900,"##კარი":8901,"##თანავე":8902,"ტკ":8903,"##ალთა":8904,"განმეორ":8905,"ეზოში":8906,"##ზრახ":8907,"##ენები":8908,"##ოტს":8909,"შეღავათ":8910,"ვალი":8911,"შეიძ":8912,"##იჯი":8913,"საკმარისია":8914,"უფლებები":8915,"ასეთია":8916,"tav":8917,"ბორჯ":8918,"აღქმ":8919,"ფაქტს":8920,"გამოცემ":8921,"პოლიციელ":8922,"##ორდ":8923,"ic":8924,"ჩამოყალიბების":8925,"მტკიცებულ":8926,"##უმად":8927,"დავუშ":8928,"##ჭირდებოდა":8929,"tet":8930,"მორჩა":8931,"ვიკ":8932,"ქვემოთ":8933,"დეტალ":8934,"დამოკიდებულია":8935,"##არიმ":8936,"##ვლინება":8937,"ამოვ":8938,"გადაამოწმებს":8939,"მუშაობას":8940,"დეზ":8941,"##რიცხო":8942,"##აქართველოს":8943,"##ij":8944,"##რჩევ":8945,"გადასამოწმებლად":8946,"რეაბილიტ":8947,"ეშმა":8948,"ფორმები":8949,"დადე":8950,"##ენტური":8951,"მწყ":8952,"სანქცი":8953,"##act":8954,"ინვესტიცი":8955,"გადანაწ":8956,"სამეფ":8957,"შეთავაზება":8958,"ჩაკეტილი":8959,"##ონები":8960,"მიაჩნია":8961,"დაკარგა":8962,"ჩაუ":8963,"##გამ":8964,"შექმნას":8965,"მოკლეს":8966,"იმყოფება":8967,"აჰ":8968,"დანა":8969,"დემონსტრ":8970,"mart":8971,"##ანგი":8972,"დადი":8973,"რითაც":8974,"ბედნიერი":8975,"##თქო":8976,"ულტრ":8977,"გარდაცვალ":8978,"შესანიშნავი":8979,"##iy":8980,"ახორციელ":8981,"მოზ":8982,"##ჭირა":8983,"gzavn":8984,"კვერ":8985,"ოპერაცი":8986,"ჩვენზე":8987,"ფასეულობ":8988,"სერვისცენტ":8989,"შევარდნაძე":8990,"გაუქმება":8991,"იგორ":8992,"მონაწილეობის":8993,"აქაურ":8994,"lariani":8995,"ვიღაცა":8996,"##ოსე":8997,"##edi":8998,"გაფიც":8999,"სასწრაფოდ":9000,"##ცხვენ":9001,"შტატების":9002,"აღკვეთ":9003,"##ნომ":9004,"ve":9005,"გავიგ":9006,"გაწევრიან":9007,"##ავება":9008,"ლივერპ":9009,"იცვლება":9010,"უზარმა":9011,"განვითარება":9012,"##ერგ":9013,"##ურებს":9014,"##ტიული":9015,"შემოგთავაზებთ":9016,"ჯალ":9017,"მოქალაქეობა":9018,"სერვისების":9019,"ვცდები":9020,"შეფ":9021,"პროცესს":9022,"48":9023,"ალასანია":9024,"##საკ":9025,"სპორტს":9026,"ხარისხის":9027,"გაპრავ":9028,"დიაგნოზ":9029,"გავლენა":9030,"იძლევა":9031,"##ანაში":9032,"##იზმ":9033,"##წავლის":9034,"##ველების":9035,"ჯგუფთან":9036,"შინ":9037,"##com":9038,"##ერძნ":9039,"##აბორ":9040,"ოპერატორს":9041,"thank":9042,"##პო":9043,"შეფასება":9044,"ლოც":9045,"ივანიშვილს":9046,"გაინტერესებთ":9047,"##ედო":9048,"ღვინო":9049,"ანი":9050,"##olod":9051,"##gan":9052,"##წავლა":9053,"მოვალ":9054,"დება":9055,"##ინებ":9056,"65":9057,"##ვიტ":9058,"დევნილ":9059,"##ეთზე":9060,"##ოლოს":9061,"##ანებ":9062,"არაფ":9063,"რეპ":9064,"დაფიქსირდება":9065,"ცენტრალურ":9066,"ინდო":9067,"შეეშ":9068,"კონტექს":9069,"დეგ":9070,"განსხვავებულია":9071,"გაემ":9072,"##ემაში":9073,"იხდით":9074,"ბარემ":9075,"პირების":9076,"ნათელი":9077,"გახსნის":9078,"სასწა":9079,"კმა":9080,"გასწვრივ":9081,"ისაუბრა":9082,"ღვინის":9083,"კვდომ":9084,"სახსრების":9085,"წარმატებას":9086,"##edan":9087,"წავიდეს":9088,"შაბათ":9089,"ფეხბურთელები":9090,"გვერდი":9091,"ახლობ":9092,"ილი":9093,"lim":9094,"ეგრ":9095,"##ogge":9096,"##end":9097,"ახსნა":9098,"ზედმეტი":9099,"##txov":9100,"აფრიკის":9101,"შვილები":9102,"უჭერს":9103,"სამსახურს":9104,"mit":9105,"##ulia":9106,"##ურდ":9107,"შეტანა":9108,"##იციაში":9109,"სპარტ":9110,"მშვენიერი":9111,"##ვეყ":9112,"ლიბერალურ":9113,"შეიძინა":9114,"რეჟიმი":9115,"დირექტი":9116,"სამეცნიერო":9117,"##კალ":9118,"ძებ":9119,"მიუთითოთ":9120,"რასაკვირ":9121,"ქე":9122,"საქალაქ":9123,"აკაკი":9124,"მრევ":9125,"უფლებათა":9126,"სასტიკ":9127,"მოვლენების":9128,"დამფ":9129,"გილოცავ":9130,"პროცენტს":9131,"არასწორია":9132,"ბერძენ":9133,"##35":9134,"operator":9135,"თენ":9136,"ტოტალიზატორ":9137,"##იკაა":9138,"ლინკი":9139,"plus":9140,"მოქალაქეების":9141,"##აქვს":9142,"ლო":9143,"ბანკომატში":9144,"ქმნის":9145,"ექსპერტიზ":9146,"sakredito":9147,"საფასურს":9148,"პროტესტი":9149,"მოქალაქეები":9150,"##ofgeorgia":9151,"filial":9152,"პარიზში":9153,"სარჩ":9154,"სისხლი":9155,"ამოს":9156,"##იურ":9157,"##აცხოვრ":9158,"კვარ":9159,"##neba":9160,"გადმოვ":9161,"##არკაცი":9162,"ოპო":9163,"მაღლა":9164,"##არკვე":9165,"უკმაყოფილ":9166,"განაჩ":9167,"კის":9168,"რეალურ":9169,"შეადგენ":9170,"შვილის":9171,"მონიშნ":9172,"დაიჯერ":9173,"ამირ":9174,"რაო":9175,"##ovel":9176,"კიტ":9177,"##აბის":9178,"აქციაზე":9179,"მშვენივრად":9180,"ჯდება":9181,"ბურჯანაძე":9182,"##იანად":9183,"onlain":9184,"ხათუნა":9185,"##ey":9186,"თანამშრომელი":9187,"##deb":9188,"შუაში":9189,"სრულყოფილად":9190,"რეგიონის":9191,"ვიქნები":9192,"##ოტიზ":9193,"თავისუფლად":9194,"მოხვდა":9195,"არჩილ":9196,"გაუფ":9197,"დაასრულ":9198,"მოგახსენოთ":9199,"##blok":9200,"ამოქმედ":9201,"ესაუბ":9202,"კარგა":9203,"##დემოკრატიული":9204,"ძუძ":9205,"ხელშეკრულება":9206,"საბერძნ":9207,"##ვებზე":9208,"ამომრჩევ":9209,"ირიცხება":9210,"##დილის":9211,"მოწყობა":9212,"##ირიცხა":9213,"მეხუთ":9214,"პატარკაცი":9215,"სადა":9216,"გაიხსენ":9217,"##ვნიშნ":9218,"ვიღაცას":9219,"ინდივიდუალური":9220,"მომხმარებელი":9221,"##ყოლება":9222,"წიგნის":9223,"რასაკვირველია":9224,"##აგდო":9225,"telefon":9226,"კონტაქ":9227,"უკავშირდება":9228,"სხვები":9229,"##ობდით":9230,"ანაგ":9231,"განისაზღვ":9232,"##ავლო":9233,"მორჩ":9234,"გამიგია":9235,"კვლევის":9236,"აღარც":9237,"samom":9238,"დაზუსტებაც":9239,"##წილად":9240,"გვჭირდება":9241,"##ოვმა":9242,"##ეთსა":9243,"##ok":9244,"axla":9245,"ხანგრძლი":9246,"გამოვიყენ":9247,"სიტუაციაში":9248,"##ილე":9249,"ითხოვა":9250,"ხელახლა":9251,"ჩვენგან":9252,"##ებულნი":9253,"გვქონ":9254,"კგ":9255,"ცვლილებების":9256,"გამართული":9257,"ორშაბათს":9258,"##ricxav":9259,"isev":9260,"##ირებულია":9261,"ასახულია":9262,"##ეორ":9263,"მკვეთ":9264,"ლენ":9265,"ხანძ":9266,"ჩაიდ":9267,"ქვა":9268,"წარმოშ":9269,"ზრდის":9270,"##ესაუბ":9271,"ბაზრ":9272,"იდგ":9273,"გუგ":9274,"ჩინოვნ":9275,"სპეციალისტი":9276,"##ხრივი":9277,"რეგიონებში":9278,"##ილდო":9279,"რეკვიზ":9280,"mitxrat":9281,"ძლივს":9282,"ბევრია":9283,"თეატრ":9284,"dak":9285,"დოკუმენტი":9286,"ბმ":9287,"##pay":9288,"სახელმწიფოებს":9289,"შემსრულ":9290,"დაიწყოს":9291,"პროცენტით":9292,"##deli":9293,"უბედურება":9294,"ემიგრ":9295,"კავშირში":9296,"სამსახურიდან":9297,"qul":9298,"ზეს":9299,"გაიტან":9300,"გასვლის":9301,"##შi":9302,"ვსა":9303,"##პარება":9304,"sakomisi":9305,"ათასობით":9306,"##vevashi":9307,"როგორებიცაა":9308,"##იფათ":9309,"ხორციელ":9310,"ცერ":9311,"ბომბ":9312,"ვისა":9313,"რამდენჯერმე":9314,"##ote":9315,"აწვ":9316,"თანხაზე":9317,"თვალში":9318,"ინტერესი":9319,"კანონს":9320,"სამუდამოდ":9321,"გაავრცელ":9322,"დაანგარიშ":9323,"##რებას":9324,"საცოდ":9325,"was":9326,"რავიცი":9327,"სერგე":9328,"ფასად":9329,"##ვატური":9330,"კირ":9331,"##lari":9332,"გახმაურ":9333,"mes":9334,"##ანიძე":9335,"გლდან":9336,"ინსტრუქციას":9337,"##bat":9338,"##ციულ":9339,"##bankofgeorgia":9340,"გადაწყ":9341,"მითხარი":9342,"##პე":9343,"##ებელთა":9344,"##ოთო":9345,"##ოვოს":9346,"მიმდებარე":9347,"დედოფ":9348,"ცოდნა":9349,"პროკურატურის":9350,"აპლიკაცია":9351,"##უწ":9352,"ცარი":9353,"ქარ":9354,"განცხადებები":9355,"ალდა":9356,"აცნობეს":9357,"ტექნოლოგი":9358,"ზღვ":9359,"##ყვეს":9360,"თურქეთში":9361,"##არაძე":9362,"ძალადობის":9363,"თანხით":9364,"სარგებელი":9365,"მეორედ":9366,"მოსმ":9367,"გაბედ":9368,"ზემოხსენებული":9369,"ურთიერთობების":9370,"შეუს":9371,"რუსებმა":9372,"აღმასრულ":9373,"##ერიას":9374,"##რძოლო":9375,"ბაკ":9376,"დავარ":9377,"მომწიფ":9378,"##vamd":9379,"ქვეყნიდან":9380,"ვიხდი":9381,"არსებობის":9382,"##ზარი":9383,"##შევ":9384,"##ენში":9385,"##ებოდათ":9386,"mxolod":9387,"იაპონ":9388,"გავაგრძელ":9389,"##ავათო":9390,"სიკვდილ":9391,"##იცა":9392,"რეზერ":9393,"კოკო":9394,"საქალაქო":9395,"მორალს":9396,"ხსენ":9397,"ტეხავს":9398,"აპირებენ":9399,"დეპუტატი":9400,"დევს":9401,"mak":9402,"##იბლ":9403,"##ტილი":9404,"xval":9405,"გააკეთეს":9406,"##რდა":9407,"no":9408,"პოზიციას":9409,"თანამდებობაზე":9410,"ღვა":9411,"უჯ":9412,"კოდით":9413,"iqneb":9414,"ადმინისტრაციის":9415,"davalian":9416,"ოდენობა":9417,"ძირს":9418,"კონსერ":9419,"დაუფ":9420,"შემდეგნაირად":9421,"აღმოაჩ":9422,"წაიღ":9423,"გადავიდა":9424,"მიწა":9425,"ფეისბუქ":9426,"მანქანის":9427,"საუკუნეში":9428,"##აგბ":9429,"##ირზე":9430,"წაშ":9431,"მიაღწია":9432,"მოიპოვებს":9433,"დოლარს":9434,"გადატრიალ":9435,"კონცენტრაცია":9436,"##ნიდა":9437,"აღინ":9438,"იტყვი":9439,"##ოკი":9440,"##ჩია":9441,"საკითხები":9442,"##ირიცხება":9443,"ელენე":9444,"ექიმები":9445,"იძულებული":9446,"ბირთვ":9447,"##როლ":9448,"გადადის":9449,"##ახლოვ":9450,"მეზობელი":9451,"შუქ":9452,"##რებათ":9453,"ახლობლ":9454,"ganvadeba":9455,"##xmareblo":9456,"##ანების":9457,"სიტუაციის":9458,"მურ":9459,"აფს":9460,"trans":9461,"მემარჯვენ":9462,"მშვიდად":9463,"უზენაესი":9464,"##დებთ":9465,"მივიდე":9466,"დაწერილი":9467,"მუხლი":9468,"ვხ":9469,"კომიტეტ":9470,"ტყვი":9471,"ლეიბორ":9472,"##რიმინ":9473,"ლინგ":9474,"იმპერ":9475,"##ანით":9476,"მსოფლიოსთვის":9477,"##sp":9478,"##ოლიდან":9479,"##ყოფი":9480,"##29":9481,"საავადმყოფოში":9482,"##chirdeba":9483,"ევროპულ":9484,"სააკაშვილ":9485,"მცხ":9486,"ჰუმან":9487,"russ":9488,"##urs":9489,"აღშფოთ":9490,"დარბაზში":9491,"თვითმმართველ":9492,"მოგეხსენ":9493,"ადამიანია":9494,"##age":9495,"##ვალმა":9496,"ექვსი":9497,"მილიონს":9498,"##რალ":9499," ":9500,"ზა":9501,"56":9502,"gel":9503,"ჩან":9504,"მოგება":9505,"გამოყოფს":9506,"დონე":9507,"ვსაუბ":9508,"ითხოვ":9509,"მოვალე":9510,"##მამ":9511,"რამდენიც":9512,"თავკაც":9513,"piradi":9514,"გაზაფხ":9515,"ხორც":9516,"##იწ":9517,"პრემი":9518,"განსაკუთრებულ":9519,"გააქტიურებული":9520,"##press":9521,"sc":9522,"ღიად":9523,"##ვამს":9524,"ნადირ":9525,"##ევროპული":9526,"ერთერთმა":9527,"მისცემს":9528,"მეუღლე":9529,"ღვინ":9530,"ვაკის":9531,"ტელეფონი":9532,"##ობებზე":9533,"სკანდ":9534,"მორაგბ":9535,"დარეკ":9536,"დინამო":9537,"წარმოუდგენ":9538,"სიძლიერე":9539,"უსუფ":9540,"საპასუხ":9541,"ip":9542,"გადარიცხვები":9543,"მაშინაც":9544,"ინტერნეტბანკის":9545,"მიიჩნევდა":9546,"ფენ":9547,"არანაირად":9548,"ეტაპს":9549,"ენერგ":9550,"ძლიერდება":9551,"გამოგზავნ":9552,"შეთანხმების":9553,"დათმ":9554,"38":9555,"##vamdis":9556,"##ილმა":9557,"ყვირ":9558,"##dom":9559,"გიკ":9560,"##წონთ":9561,"შეგიძ":9562,"სომხეთის":9563,"##ინიც":9564,"გელა":9565,"დააწ":9566,"დარღვევის":9567,"მენეჯ":9568,"წავიდე":9569,"aqvs":9570,"ფა":9571,"თავდასხმ":9572,"გეკ":9573,"გაგზავნ":9574,"გააკეთოს":9575,"ფილმის":9576,"charicx":9577,"##ფე":9578,"შედეგს":9579,"##რულად":9580,"დაველ":9581,"ტქ":9582,"##ევდნენ":9583,"ჩარჩ":9584,"მებრძოლ":9585,"##ულთა":9586,"ნორ":9587,"##ბურთო":9588,"##ყარო":9589,"ტორ":9590,"##ეწონა":9591,"გამოვიტან":9592,"გულს":9593,"ოხ":9594,"##ენისგან":9595,"ფულ":9596,"დღესასწა":9597,"##ყვანე":9598,"მითხარით":9599,"##ემის":9600,"მისაღები":9601,"iyo":9602,"სასაცილო":9603,"##იმბ":9604,"ქოცები":9605,"უარყოფითი":9606,"sesxze":9607,"აღმოჩ":9608,"##აცობრი":9609,"პუტინს":9610,"##ღამ":9611,"##ურეკ":9612,"##ამაშა":9613,"hello":9614,"გქონდეთ":9615,"##ვებ":9616,"იქაც":9617,"##ეტაპ":9618,"momdis":9619,"##არიას":9620,"სკამ":9621,"სეზონში":9622,"ლელა":9623,"ნარკომ":9624,"წყალს":9625,"შენობა":9626,"მენტალიტ":9627,"ხაინდ":9628,"##ეგობ":9629,"დატვირთ":9630,"ხელშეკრულების":9631,"არასრულწლ":9632,"წევრებს":9633,"გაითვალისწინეთ":9634,"ინტერპრესნიუსსldquo":9635,"ყიდულობს":9636,"gar":9637,"აინტერესებს":9638,"მეწარ":9639,"ყირ":9640,"უჩ":9641,"##ველობის":9642,"რიგი":9643,"უნარის":9644,"სქემით":9645,"##ენკო":9646,"avt":9647,"იანი":9648,"ტრანზ":9649,"საწინააღმდეგო":9650,"საშუალებად":9651,"დაუმორჩილებლობის":9652,"##რეწ":9653,"თეორიას":9654,"განაცხადს":9655,"ხმამაღ":9656,"ჯანს":9657,"გაის":9658,"არისო":9659,"არსებობა":9660,"სხვაგვარად":9661,"სპეციალურად":9662,"მაი":9663,"##argeblob":9664,"ხოსე":9665,"##sir":9666,"ვთვლი":9667,"##აცობრიო":9668,"ტურში":9669,"იუვენტ":9670,"საშეღ":9671,"წარმოგ":9672,"კვლევა":9673,"გაუმართ":9674,"თვლის":9675,"ლიდერმა":9676,"მატჩის":9677,"არათ":9678,"##მულ":9679,"##ეთმა":9680,"ვიქნებით":9681,"სიტყვას":9682,"უნარი":9683,"ჩამოე":9684,"mas":9685,"ubra":9686,"ჭკვიან":9687,"ლიდერობა":9688,"მინდობილ":9689,"მთავრობაში":9690,"შვილს":9691,"ყოველდღე":9692,"ვატ":9693,"მომღერ":9694,"rodis":9695,"gamom":9696,"მირჩევნია":9697,"ნაცი":9698,"##ტრუ":9699,"დაკარგული":9700,"მშენებლ":9701,"##ებლი":9702,"შეშფოთ":9703,"რახან":9704,"სამაჩ":9705,"ჩიტ":9706,"ხიდ":9707,"საღოლ":9708,"ინვესტ":9709,"ემსახურება":9710,"დამპ":9711,"##wyda":9712,"##გოგი":9713,"##vir":9714,"სიმართ":9715,"მისახვედრია":9716,"ზეგ":9717,"ვუთხარი":9718,"რესურსი":9719,"##ერით":9720,"აწერია":9721,"უკანონოდ":9722,"დაბრუნების":9723,"გამა":9724,"##ჭვირ":9725,"მისვლა":9726,"ადეკ":9727,"man":9728,"რეფერ":9729,"##ყვართ":9730,"შუამ":9731,"##ველმოქმედ":9732,"##ვრი":9733,"გიჟ":9734,"შაბათს":9735,"წერთ":9736,"წავიკითხე":9737,"ბაგრ":9738,"განვითარებას":9739,"ბინძ":9740,"ქნას":9741,"##sa":9742,"##vas":9743,"ესა":9744,"თქვეს":9745,"წასვლით":9746,"მსურ":9747,"##ორბ":9748,"იაკ":9749,"ტესტ":9750,"ნეტავ":9751,"##უალურად":9752,"##ჩინოს":9753,"##ემს":9754,"საბრძოლო":9755,"but":9756,"##53":9757,"##აციულ":9758,"##ავალო":9759,"##ებთო":9760,"დასჯ":9761,"კომისია":9762,"მაკა":9763,"საზღვარი":9764,"##ყიდა":9765,"##ურზე":9766,"შემადგენლობაში":9767,"სამინისტრომ":9768,"დაუდ":9769,"მინიმ":9770,"განხილვის":9771,"აზერბაიჯანის":9772,"სუვერენიტეტი":9773,"კვერცხ":9774,"ფაკ":9775,"გამარჯვების":9776,"წლები":9777,"გერმანია":9778,"##ვში":9779,"მოაგ":9780,"ტუტ":9781,"##ანდელ":9782,"სახლიდან":9783,"##ჭამ":9784,"საჭიროებს":9785,"კონცერ":9786,"##ძრ":9787,"განზრახ":9788,"საათიანი":9789,"წარმოს":9790,"ქუთაის":9791,"xelfas":9792,"მაღაზი":9793,"დრამ":9794,"კათოლი":9795,"მათივე":9796,"##წარმოების":9797,"##ue":9798,"კბ":9799,"სალამ":9800,"shevdzleb":9801,"სახელმწიფოც":9802,"##ყი":9803,"ტენდ":9804,"ალა":9805,"კონსტიტუციის":9806,"კონსტ":9807,"ღვთის":9808,"უმძიმესი":9809,"##ეჯ":9810,"num":9811,"ვიზიტის":9812,"ეხმარ":9813,"shet":9814,"დაბალ":9815,"ნაძირ":9816,"მათგანი":9817,"მძღოლ":9818,"ღმერთის":9819,"ორგანო":9820,"საზოგადოებრივ":9821,"ფულით":9822,"გულზე":9823,"ბრწყინვალე":9824,"მეთოდი":9825,"ადამიანთა":9826,"##ტით":9827,"გამოტანა":9828,"გაზეთი":9829,"საზღვრის":9830,"##რებ":9831,"დარჩეს":9832,"##igeb":9833,"მოსამ":9834,"##დაა":9835,"##იშნება":9836,"დამტკიცებული":9837,"ენდ":9838,"რითი":9839,"02":9840,"2017":9841,"ფეი":9842,"ადასტურებს":9843,"იგივეა":9844,"უდანაშა":9845,"საზღ":9846,"იცოდე":9847,"ვიდეოთ":9848,"იცოდნენ":9849,"ფიზიკურად":9850,"##ობასა":9851,"##ოდინ":9852,"120":9853,"##ტკიცებ":9854,"განხილულ":9855,"arm":9856,"##მეთქი":9857,"მოთხოვნით":9858,"gavige":9859,"##რეტ":9860,"გიწერთ":9861,"მოვიქცე":9862,"##მანთა":9863,"ჯაფარი":9864,"##მორ":9865,"მეცნიერების":9866,"გამოსვლ":9867,"##ეულად":9868,"არხის":9869,"შედარებითი":9870,"მაპატი":9871,"##ულებთან":9872,"სიძულ":9873,"მუნიციპალიტეტის":9874,"გავლება":9875,"ქალიშვილმა":9876,"##კაში":9877,"არეულ":9878,"გავით":9879,"თანამდებობის":9880,"##პია":9881,"გაუჩინა":9882,"ლაპარაკობს":9883,"გამოჩენილი":9884,"უცხოეთში":9885,"ნუგ":9886,"დამიკ":9887,"შევძლებთ":9888,"გასდევს":9889,"დამთავრდა":9890,"samomxmareblo":9891,"ეხსნა":9892,"სოფელი":9893,"ყავთ":9894,"მომენტი":9895,"პროპორ":9896,"სიკვდილის":9897,"ხვედრია":9898,"უკანასკნელ":9899,"ივანიშვილმა":9900,"ვიღაცამ":9901,"ზოგადსაკ":9902,"##ice":9903,"ნანახი":9904,"ყოველთვიურად":9905,"##წუხებს":9906,"წარმომადგენლებს":9907,"30იან":9908,"##ვალეს":9909,"უძველ":9910,"მტრებად":9911,"მაყ":9912,"მათზე":9913,"ფრანს":9914,"საპატრიარქოს":9915,"ბანი":9916,"mivide":9917,"მაჩ":9918,"განვავ":9919,"წუხელ":9920,"ფუ":9921,"რევოლუცია":9922,"კოვ":9923,"ლინგვისტ":9924,"ოპერაციას":9925,"ორბ":9926,"##შვება":9927,"მორგება":9928,"ვაფ":9929,"საყო":9930,"წარმატებებს":9931,"##რებზე":9932,"##etail":9933,"განსხვავება":9934,"წილი":9935,"სტუ":9936,"esesxige":9937,"ფართო":9938,"ზოგადსაკაცობრიო":9939,"ვამოწმებთ":9940,"იხსნება":9941,"მოსამართლე":9942,"ბიუჯეტში":9943,"ნახავთ":9944,"დასა":9945,"ნოემბრის":9946,"ნულიდან":9947,"##ფს":9948,"##ებულთა":9949,"ალასანიას":9950,"განვავრც":9951,"აყ":9952,"##avshir":9953,"წუთზე":9954,"##ატები":9955,"ქონდეს":9956,"განაკვეთი":9957,"კუთვნ":9958,"სახელის":9959,"საბაჟ":9960,"gadavricxo":9961,"ვაბშე":9962,"მარგველ":9963,"naxvamdis":9964,"##ალას":9965,"განცხადების":9966,"de":9967,"იდენტიფიკ":9968,"##გარ":9969,"უწოდებენ":9970,"შენიშვნ":9971,"ირმა":9972,"ინფო":9973,"სჯობს":9974,"ფირი":9975,"##ატრონ":9976,"მუდმივი":9977,"გააფ":9978,"##lin":9979,"ტრავმა":9980,"მთელს":9981,"დამთავრებული":9982,"ლატ":9983,"გაჰ":9984,"ამხანა":9985,"უხერხ":9986,"tve":9987,"მომავლისკენ":9988,"თოვ":9989,"დავაზუსტებ":9990,"ტელეკომპანია":9991,"41":9992,"დაზღ":9993,"გაჭ":9994,"სათანადო":9995,"ხოო":9996,"დასრულდება":9997,"წინსწრებით":9998,"აგრძელ":9999}}}